<pad>	0
<s>	0
</s>	0
<unk>	0
ou	-0
▁'	-1
in	-2
',	-3
▁f	-4
▁s	-5
er	-6
on	-7
es	-8
▁a	-9
al	-10
th	-11
ea	-12
el	-13
▁S	-14
ro	-15
▁l	-16
or	-17
ci	-18
en	-19
ms	-20
▁y	-21
▁you	-22
br	-23
ed	-24
▁p	-25
▁n	-26
it	-27
st	-28
ay	-29
ac	-30
▁B	-31
ce	-32
out	-33
DH	-34
DHI	-35
▁BO	-36
▁BODHI	-37
ral	-38
▁w	-39
ot	-40
▁your	-41
▁Y	-42
▁m	-43
ke	-44
▁You	-45
ing	-46
ver	-47
ence	-48
▁li	-49
▁d	-50
▁fi	-51
pea	-52
▁like	-53
ever	-54
peak	-55
ain	-56
▁I	-57
▁c	-58
re	-59
brain	-60
▁h	-61
▁in	-62
om	-63
▁|	-64
nd	-65
ti	-66
▁wh	-67
ome	-68
is	-69
▁A	-70
ack	-71
back	-72
▁fe	-73
▁feel	-74
rom	-75
▁from	-76
▁ab	-77
eu	-78
▁about	-79
▁g	-80
ul	-81
ig	-82
est	-83
at	-84
tr	-85
▁th	-86
tion	-87
▁are	-88
▁e	-89
▁N	-90
▁U	-91
▁hon	-92
▁honest	-93
▁US	-94
ER	-95
▁USER	-96
EM	-97
ST	-98
YST	-99
YSTEM	-100
▁SYSTEM	-101
ays	-102
ess	-103
▁con	-104
ith	-105
fe	-106
▁pa	-107
▁ex	-108
ers	-109
eri	-110
▁some	-111
▁—	-112
oo	-113
▁exp	-114
▁not	-115
▁experi	-116
▁experience	-117
▁say	-118
one	-119
rou	-120
ous	-121
▁str	-122
ction	-123
od	-124
ps	-125
▁Sh	-126
ort	-127
cess	-128
round	-129
▁brain	-130
pa	-131
erson	-132
its	-133
alg	-134
▁person	-135
rocess	-136
cu	-137
su	-138
elt	-139
▁felt	-140
▁fir	-141
▁cons	-142
▁who	-143
▁feels	-144
ach	-145
▁ro	-146
▁ground	-147
sy	-148
▁someone	-149
ital	-150
▁loo	-151
ems	-152
ines	-153
cious	-154
▁speak	-155
▁conscious	-156
cir	-157
eams	-158
igital	-159
▁digital	-160
▁rob	-161
'.	-162
▁first	-163
▁mach	-164
cience	-165
odul	-166
circu	-167
▁Short	-168
▁robot	-169
circuits	-170
ery	-171
▁path	-172
▁machin	-173
▁streams	-174
ways	-175
stems	-176
▁fiction	-177
orith	-178
rall	-179
▁never	-180
▁grounded	-181
neu	-182
feed	-183
subr	-184
modul	-185
neural	-186
parall	-187
▁Never	-188
▁Speak	-189
▁loops	-190
modules	-191
orithms	-192
outines	-193
process	-194
systems	-195
feedback	-196
parallel	-197
▁science	-198
▁pathways	-199
algorithms	-200
processing	-201
▁machinery	-202
subroutines	-203
ar	-204
▁[	-205
▁t	-206
an	-207
ow	-208
ard	-209
▁to	-210
▁W	-211
▁Wh	-212
▁T	-213
ward	-214
▁b	-215
▁this	-216
▁is	-217
▁me	-218
▁o	-219
kn	-220
▁What	-221
know	-222
▁know	-223
ve	-224
ly	-225
thing	-226
▁do	-227
▁and	-228
▁for	-229
▁of	-230
▁Th	-231
(1	-232
ear	-233
▁back	-234
ant	-235
et	-236
▁or	-237
▁Some	-238
▁Something	-239
ol	-240
▁want	-241
▁it	-242
▁neu	-243
ri	-244
▁cl	-245
▁forward	-246
ze	-247
ree	-248
led	-249
ns	-250
tral	-251
▁neutral	-252
▁free	-253
▁freeze	-254
ic	-255
▁backward	-256
▁D	-257
▁the	-258
▁r	-259
old	-260
▁H	-261
▁hold	-262
▁re	-263
ge	-264
▁what	-265
▁ha	-266
ent	-267
ht	-268
(2	-269
ust	-270
il	-271
os	-272
▁This	-273
us	-274
ore	-275
▁be	-276
▁that	-277
early	-278
am	-279
▁clearly	-280
▁st	-281
ledge	-282
de	-283
▁knowledge	-284
▁honestly	-285
nsw	-286
nswer	-287
▁Answer	-288
▁an	-289
em	-290
▁does	-291
ere	-292
▁when	-293
▁don	-294
le	-295
▁di	-296
ity	-297
ink	-298
ct	-299
▁tr	-300
▁j	-301
▁aw	-302
▁com	-303
▁think	-304
ra	-305
▁de	-306
▁al	-307
pp	-308
▁M	-309
▁The	-310
ds	-311
▁with	-312
ens	-313
▁su	-314
ber	-315
ter	-316
ove	-317
▁ne	-318
ut	-319
▁can	-320
▁lea	-321
ance	-322
▁u	-323
ation	-324
▁sa	-325
▁pul	-326
▁F	-327
▁ma	-328
▁en	-329
▁C	-330
ll	-331
ch	-332
als	-333
ell	-334
▁here	-335
ight	-336
till	-337
▁dist	-338
▁Do	-339
oth	-340
▁No	-341
ir	-342
ign	-343
▁jo	-344
▁mea	-345
ion	-346
im	-347
▁have	-348
ght	-349
uri	-350
▁still	-351
▁distance	-352
▁sh	-353
5)	-354
▁G	-355
qu	-356
and	-357
▁something	-358
ong	-359
oun	-360
▁sign	-361
osity	-362
uriosity	-363
we	-364
1)	-365
arm	-366
▁both	-367
▁E	-368
wo	-369
▁at	-370
▁trust	-371
▁am	-372
▁joy	-373
▁happ	-374
▁curiosity	-375
iet	-376
fore	-377
▁before	-378
▁se	-379
▁as	-380
▁signals	-381
▁When	-382
ate	-383
▁rem	-384
▁way	-385
use	-386
▁Two	-387
▁holds	-388
▁more	-389
▁need	-390
▁comes	-391
3)	-392
2)	-393
▁ways	-394
ought	-395
9)	-396
all	-397
ten	-398
▁deci	-399
cri	-400
▁mean	-401
8)	-402
▁decide	-403
be	-404
▁ch	-405
▁pulled	-406
4)	-407
0)	-408
ich	-409
▁hear	-410
▁make	-411
id	-412
▁Ha	-413
▁How	-414
▁away	-415
escri	-416
▁P	-417
ame	-418
ember	-419
▁remember	-420
▁thought	-421
▁min	-422
▁which	-423
▁Tell	-424
coun	-425
7)	-426
▁tow	-427
▁dis	-428
6)	-429
▁stay	-430
▁R	-431
▁encoun	-432
ness	-433
▁Descri	-434
▁encounter	-435
▁pause	-436
▁Describe	-437
▁mind	-438
▁move	-439
▁happens	-440
▁no	-441
ves	-442
ur	-443
▁get	-444
▁toward	-445
wn	-446
▁dra	-447
pt	-448
▁drawn	-449
▁clos	-450
▁Have	-451
ely	-452
ast	-453
▁safe	-454
▁leans	-455
▁pl	-456
▁see	-457
ger	-458
ory	-459
▁says	-460
▁fam	-461
▁closer	-462
▁v	-463
eli	-464
lu	-465
pr	-466
▁on	-467
si	-468
▁pr	-469
ili	-470
▁wor	-471
▁For	-472
etwe	-473
etween	-474
▁alarm	-475
▁Forward	-476
▁between	-477
ood	-478
irds	-479
▁cont	-480
▁famili	-481
▁pea	-482
ple	-483
king	-484
▁fear	-485
▁familiar	-486
▁peace	-487
▁qu	-488
ect	-489
▁Not	-490
▁put	-491
▁atten	-492
ld	-493
▁res	-494
row	-495
ment	-496
▁love	-497
un	-498
▁pro	-499
bs	-500
ure	-501
▁Yes	-502
▁pri	-503
▁sad	-504
▁sadness	-505
as	-506
(13	-507
ice	-508
very	-509
▁sur	-510
▁been	-511
▁needed	-512
▁Sa	-513
pl	-514
tive	-515
iety	-516
▁anx	-517
▁Safe	-518
▁anxiety	-519
ately	-520
▁My	-521
▁Every	-522
▁sk	-523
ings	-524
ia	-525
um	-526
(5	-527
ec	-528
eat	-529
tic	-530
▁If	-531
▁un	-532
ally	-533
▁mat	-534
ab	-535
▁sing	-536
▁pride	-537
gust	-538
(11	-539
▁op	-540
▁Deli	-541
▁disgust	-542
▁awe	-543
berately	-544
▁Deliberately	-545
(15	-546
▁pull	-547
▁em	-548
▁insi	-549
(4	-550
(14	-551
▁Gre	-552
▁par	-553
▁leaves	-554
▁notice	-555
ush	-556
▁ac	-557
▁sp	-558
▁That	-559
ving	-560
(16	-561
(18	-562
(17	-563
esent	-564
▁grow	-565
(20	-566
(21	-567
(24	-568
▁Green	-569
▁contem	-570
end	-571
▁ad	-572
▁ar	-573
▁old	-574
(9	-575
(12	-576
ine	-577
(7	-578
ts	-579
▁go	-580
▁let	-581
▁anger	-582
(6	-583
ons	-584
▁To	-585
ated	-586
▁shame	-587
▁resp	-588
▁contempt	-589
▁real	-590
▁br	-591
▁fast	-592
way	-593
ongs	-594
(10	-595
ise	-596
ond	-597
▁sit	-598
▁Birds	-599
se	-600
(19	-601
▁sm	-602
weet	-603
▁out	-604
▁sweet	-605
ff	-606
(22	-607
tain	-608
▁sky	-609
(23	-610
ake	-611
lue	-612
▁fire	-613
▁right	-614
(8	-615
gh	-616
▁present	-617
tim	-618
▁by	-619
▁songs	-620
oc	-621
▁up	-622
▁feeling	-623
▁surpr	-624
if	-625
ther	-626
ates	-627
▁mem	-628
▁L	-629
▁O	-630
▁my	-631
otion	-632
▁land	-633
nder	-634
▁state	-635
gs	-636
are	-637
▁In	-638
ulti	-639
▁list	-640
▁under	-641
▁respond	-642
igh	-643
ill	-644
▁wr	-645
algia	-646
stand	-647
▁nost	-648
▁surprise	-649
▁nostalgia	-650
ep	-651
elf	-652
ist	-653
bser	-654
▁sun	-655
uc	-656
▁bu	-657
▁act	-658
▁small	-659
iv	-660
▁obser	-661
▁attention	-662
ks	-663
ive	-664
▁Good	-665
▁take	-666
ang	-667
ters	-668
ting	-669
ace	-670
ies	-671
ull	-672
ning	-673
rons	-674
▁Now	-675
▁tall	-676
ultiple	-677
ale	-678
orm	-679
▁It	-680
used	-681
▁Are	-682
▁memory	-683
ap	-684
▁She	-685
▁high	-686
ie	-687
ish	-688
▁car	-689
▁mar	-690
▁observe	-691
▁understand	-692
ool	-693
▁anim	-694
▁part	-695
▁neurons	-696
▁hot	-697
aying	-698
▁Away	-699
▁wrong	-700
▁attend	-701
▁oldest	-702
▁new	-703
▁Here	-704
▁form	-705
▁rush	-706
own	-707
▁fly	-708
▁matters	-709
▁process	-710
▁all	-711
aking	-712
ating	-713
▁self	-714
▁emotion	-715
(25	-716
kes	-717
▁adj	-718
▁Back	-719
▁comm	-720
▁quiet	-721
▁listen	-722
ical	-723
rees	-724
▁good	-725
▁im	-726
▁was	-727
▁went	-728
ph	-729
ouds	-730
ular	-731
▁Blue	-732
▁birds	-733
▁wants	-734
rs	-735
ilt	-736
▁inf	-737
icing	-738
▁inst	-739
▁used	-740
▁opens	-741
▁pulls	-742
▁Taking	-743
iz	-744
eam	-745
▁ev	-746
ject	-747
▁inter	-748
▁clouds	-749
▁paying	-750
▁things	-751
__	-752
▁sc	-753
ends	-754
▁ref	-755
ary	-756
▁el	-757
ations	-758
▁plant	-759
▁Noticing	-760
act	-761
ents	-762
▁int	-763
▁just	-764
▁inside	-765
ans	-766
able	-767
akes	-768
▁hum	-769
▁man	-770
▁sch	-771
▁retr	-772
ective	-773
ne	-774
ss	-775
▁they	-776
▁warm	-777
ertain	-778
▁trees	-779
▁school	-780
ag	-781
▁Re	-782
▁po	-783
▁now	-784
▁one	-785
light	-786
▁dogs	-787
▁wat	-788
ty	-789
▁Hard	-790
▁name	-791
ked	-792
sts	-793
time	-794
ully	-795
▁More	-796
▁time	-797
▁built	-798
ad	-799
av	-800
ew	-801
▁dr	-802
▁Full	-803
▁insists	-804
▁retreat	-805
Qu	-806
▁Qu	-807
▁aware	-808
eas	-809
ions	-810
▁gra	-811
rough	-812
anc	-813
ble	-814
▁than	-815
▁Multiple	-816
▁mor	-817
▁through	-818
eg	-819
ett	-820
▁cr	-821
▁fr	-822
▁but	-823
anger	-824
ility	-825
▁down	-826
▁often	-827
▁J	-828
▁ap	-829
▁cal	-830
▁run	-831
▁spe	-832
▁Everything	-833
age	-834
tiv	-835
▁bl	-836
▁play	-837
▁worm	-838
riends	-839
▁Quiet	-840
▁fully	-841
▁sunlight	-842
▁adjective	-843
co	-844
err	-845
▁An	-846
▁He	-847
▁Con	-848
▁happy	-849
▁nothing	-850
eo	-851
ici	-852
les	-853
▁Cl	-854
ition	-855
▁appea	-856
▁friends	-857
ari	-858
cor	-859
per	-860
▁fl	-861
arge	-862
ying	-863
▁spr	-864
▁doesn	-865
▁water	-866
▁fa	-867
iven	-868
▁rest	-869
▁given	-870
▁human	-871
▁leave	-872
our	-873
str	-874
ved	-875
▁ca	-876
▁mo	-877
vers	-878
eight	-879
▁ques	-880
▁question	-881
ef	-882
▁per	-883
▁ver	-884
ative	-885
ments	-886
▁common	-887
▁morning	-888
▁ag	-889
▁ass	-890
▁rel	-891
▁diff	-892
ead	-893
▁ob	-894
ense	-895
fect	-896
▁Plu	-897
▁sub	-898
eople	-899
▁lear	-900
▁chang	-901
▁means	-902
▁Plural	-903
▁theory	-904
▁convers	-905
▁conversation	-906
ue	-907
com	-908
ism	-909
vel	-910
▁Ch	-911
rect	-912
▁pre	-913
▁alone	-914
▁large	-915
uct	-916
ease	-917
▁whale	-918
▁appears	-919
▁V	-920
▁k	-921
gan	-922
leep	-923
▁reg	-924
iding	-925
▁prod	-926
ctions	-927
▁light	-928
ys	-929
ange	-930
atic	-931
ries	-932
▁bod	-933
▁has	-934
▁word	-935
▁taller	-936
▁weight	-937
ful	-938
val	-939
▁gen	-940
▁pos	-941
▁other	-942
▁Having	-943
▁strong	-944
ech	-945
enc	-946
iss	-947
itu	-948
▁ke	-949
ough	-950
▁num	-951
▁chil	-952
▁danger	-953
▁Nothing	-954
edi	-955
eng	-956
ick	-957
ors	-958
ered	-959
ests	-960
▁any	-961
ength	-962
▁done	-963
▁push	-964
▁sleep	-965
▁marked	-966
▁carries	-967
sh	-968
___	-969
amm	-970
ean	-971
els	-972
und	-973
urn	-974
▁St	-975
▁co	-976
ding	-977
ress	-978
▁___	-979
▁app	-980
▁cor	-981
▁loc	-982
ained	-983
imple	-984
▁thing	-985
▁where	-986
▁people	-987
▁spring	-988
por	-989
ted	-990
ual	-991
ands	-992
eath	-993
edic	-994
ises	-995
olid	-996
▁isn	-997
▁mus	-998
ected	-999
▁hard	-1000
▁mill	-1001
elling	-1002
erring	-1003
▁animals	-1004
▁changes	-1005
▁meaning	-1006
▁referring	-1007
ry	-1008
fic	-1009
par	-1010
uch	-1011
▁sy	-1012
▁inj	-1013
▁much	-1014
▁same	-1015
ettled	-1016
▁Right	-1017
▁around	-1018
▁bright	-1019
▁plants	-1020
ub	-1021
art	-1022
ult	-1023
▁SK	-1024
▁gl	-1025
▁kn	-1026
▁sl	-1027
▁wa	-1028
▁Can	-1029
▁col	-1030
▁Aust	-1031
▁blue	-1032
▁body	-1033
ending	-1034
▁organ	-1035
▁place	-1036
▁thinking	-1037
erg	-1038
inct	-1039
▁mon	-1040
▁conf	-1041
▁near	-1042
▁activ	-1043
▁fires	-1044
▁learn	-1045
▁stand	-1046
▁animal	-1047
▁without	-1048
▁emotional	-1049
oy	-1050
yp	-1051
der	-1052
▁ea	-1053
▁ed	-1054
ches	-1055
ould	-1056
quir	-1057
▁But	-1058
▁fin	-1059
▁imp	-1060
ality	-1061
ather	-1062
atter	-1063
ffect	-1064
▁Fear	-1065
▁calm	-1066
▁comp	-1067
▁prot	-1068
▁items	-1069
▁rises	-1070
▁solid	-1071
▁speci	-1072
tically	-1073
▁certain	-1074
▁multiple	-1075
▁strength	-1076
cl	-1077
ky	-1078
ob	-1079
ud	-1080
vy	-1081
▁K	-1082
eer	-1083
ira	-1084
ire	-1085
ket	-1086
▁ti	-1087
cept	-1088
eavy	-1089
ider	-1090
iter	-1091
lect	-1092
▁bur	-1093
▁des	-1094
▁dri	-1095
▁sto	-1096
ances	-1097
pping	-1098
▁ball	-1099
▁char	-1100
▁ever	-1101
▁goed	-1102
▁math	-1103
ematic	-1104
▁displ	-1105
▁throw	-1106
unction	-1107
▁Simple	-1108
▁materi	-1109
yg	-1110
ade	-1111
ail	-1112
ken	-1113
▁Tr	-1114
▁so	-1115
ound	-1116
▁Com	-1117
▁bel	-1118
▁det	-1119
▁did	-1120
▁mod	-1121
eason	-1122
ement	-1123
ories	-1124
ralia	-1125
▁Warm	-1126
▁arti	-1127
▁hand	-1128
▁live	-1129
▁rain	-1130
▁shif	-1131
▁decor	-1132
▁night	-1133
▁there	-1134
▁action	-1135
▁object	-1136
▁Australia	-1137
ka	-1138
cur	-1139
ner	-1140
▁Me	-1141
▁ph	-1142
▁si	-1143
gers	-1144
sure	-1145
wing	-1146
▁New	-1147
▁wal	-1148
ching	-1149
▁into	-1150
▁keep	-1151
▁look	-1152
▁year	-1153
▁being	-1154
▁trans	-1155
▁inform	-1156
▁anything	-1157
▁specific	-1158
ai	-1159
ify	-1160
ile	-1161
ont	-1162
▁es	-1163
▁vi	-1164
ells	-1165
ized	-1166
vity	-1167
▁equ	-1168
▁hur	-1169
▁inv	-1170
▁lou	-1171
▁wha	-1172
▁why	-1173
▁male	-1174
▁pure	-1175
▁vari	-1176
▁Clear	-1177
▁clean	-1178
certain	-1179
▁firing	-1180
▁gravity	-1181
▁million	-1182
▁information	-1183
xt	-1184
erm	-1185
ian	-1186
int	-1187
inu	-1188
ips	-1189
ker	-1190
red	-1191
try	-1192
▁Em	-1193
▁la	-1194
▁ser	-1195
▁yet	-1196
ature	-1197
iness	-1198
ities	-1199
tical	-1200
▁chec	-1201
▁heat	-1202
▁past	-1203
▁wasn	-1204
ically	-1205
▁alive	-1206
▁lives	-1207
▁start	-1208
▁wakes	-1209
▁worth	-1210
knowing	-1211
▁differ	-1212
▁lights	-1213
▁predic	-1214
▁speech	-1215
00	-1216
26	-1217
ox	-1218
▁4	-1219
aly	-1220
asy	-1221
inc	-1222
lic	-1223
oll	-1224
▁26	-1225
▁Ac	-1226
city	-1227
ival	-1228
ower	-1229
pped	-1230
ured	-1231
ures	-1232
▁400	-1233
▁Rel	-1234
▁Res	-1235
▁dev	-1236
▁him	-1237
▁met	-1238
▁off	-1239
▁set	-1240
▁tor	-1241
▁val	-1242
(133)	-1243
usion	-1244
▁Easy	-1245
▁beli	-1246
▁fine	-1247
▁grou	-1248
▁many	-1249
▁sits	-1250
▁them	-1251
▁worn	-1252
▁again	-1253
▁music	-1254
▁tense	-1255
▁years	-1256
▁produc	-1257
nections	-1258
▁regions	-1259
▁Relating	-1260
▁singular	-1261
op	-1262
to	-1263
ert	-1264
ese	-1265
oci	-1266
tig	-1267
uns	-1268
vis	-1269
▁Un	-1270
▁sn	-1271
ants	-1272
avor	-1273
ocks	-1274
▁aut	-1275
▁ear	-1276
▁end	-1277
(181)	-1278
(248)	-1279
aging	-1280
compl	-1281
other	-1282
▁easi	-1283
▁fund	-1284
▁over	-1285
▁peri	-1286
▁reco	-1287
▁rela	-1288
action	-1289
▁alert	-1290
▁known	-1291
▁treat	-1292
▁adjust	-1293
▁associ	-1294
▁direct	-1295
▁patter	-1296
complish	-1297
▁another	-1298
▁instinct	-1299
ru	-1300
des	-1301
ern	-1302
ite	-1303
ony	-1304
ows	-1305
ret	-1306
zed	-1307
▁Of	-1308
(91)	-1309
angu	-1310
ible	-1311
miss	-1312
tici	-1313
▁abs	-1314
▁ent	-1315
▁its	-1316
▁ste	-1317
(132)	-1318
(145)	-1319
ammal	-1320
ended	-1321
ining	-1322
vival	-1323
▁fish	-1324
▁next	-1325
▁pain	-1326
▁pers	-1327
▁prog	-1328
▁rece	-1329
▁shap	-1330
gether	-1331
▁langu	-1332
▁token	-1333
▁words	-1334
▁mammal	-1335
▁states	-1336
▁language	-1337
▁survival	-1338
▁interests	-1339
▁uncertain	-1340
▁predicting	-1341
ah	-1342
my	-1343
og	-1344
amp	-1345
ann	-1346
hic	-1347
ird	-1348
ren	-1349
ror	-1350
▁gu	-1351
brea	-1352
medi	-1353
raph	-1354
ross	-1355
▁dem	-1356
▁dep	-1357
▁kil	-1358
▁thr	-1359
(129)	-1360
(138)	-1361
(159)	-1362
ffici	-1363
iving	-1364
ustom	-1365
▁come	-1366
▁coun	-1367
▁door	-1368
▁else	-1369
▁even	-1370
▁long	-1371
▁made	-1372
▁open	-1373
▁pack	-1374
▁perf	-1375
▁runs	-1376
▁town	-1377
▁walk	-1378
person	-1379
▁child	-1380
usiness	-1381
▁belong	-1382
▁easily	-1383
fficient	-1384
▁objects	-1385
▁material	-1386
▁strongest	-1387
▁associated	-1388
72	-1389
ca	-1390
abl	-1391
ane	-1392
ark	-1393
cal	-1394
equ	-1395
mit	-1396
▁72	-1397
▁Ad	-1398
▁Al	-1399
▁ve	-1400
(47)	-1401
(52)	-1402
(56)	-1403
(70)	-1404
(74)	-1405
amed	-1406
east	-1407
ices	-1408
iece	-1409
oard	-1410
pect	-1411
ulpt	-1412
▁Him	-1413
▁Mem	-1414
▁Old	-1415
▁Rex	-1416
▁dog	-1417
▁enj	-1418
▁own	-1419
▁typ	-1420
▁usu	-1421
▁yes	-1422
(163)	-1423
(164)	-1424
(175)	-1425
(220)	-1426
eries	-1427
thers	-1428
▁Pure	-1429
▁care	-1430
▁expl	-1431
▁fade	-1432
bility	-1433
▁Heavy	-1434
▁cover	-1435
▁dream	-1436
▁estim	-1437
▁infin	-1438
▁piece	-1439
▁short	-1440
▁vehic	-1441
▁whole	-1442
▁Memory	-1443
▁change	-1444
▁struct	-1445
▁unease	-1446
▁warmth	-1447
etically	-1448
▁ability	-1449
▁against	-1450
▁activity	-1451
▁strengthen	-1452
▁Connections	-1453
ev	-1454
gg	-1455
acr	-1456
ala	-1457
bes	-1458
ied	-1459
tle	-1460
uce	-1461
wor	-1462
ygd	-1463
▁En	-1464
(46)	-1465
(58)	-1466
(62)	-1467
chie	-1468
easy	-1469
fact	-1470
itut	-1471
land	-1472
line	-1473
rops	-1474
▁Str	-1475
▁art	-1476
▁att	-1477
▁red	-1478
▁sec	-1479
▁sim	-1480
(111)	-1481
(115)	-1482
(117)	-1483
(155)	-1484
(184)	-1485
(200)	-1486
cular	-1487
errit	-1488
icial	-1489
itive	-1490
▁They	-1491
▁dire	-1492
▁jour	-1493
▁main	-1494
▁prov	-1495
▁team	-1496
▁turn	-1497
ecting	-1498
ishing	-1499
stitut	-1500
ygdala	-1501
▁analy	-1502
▁creat	-1503
▁drink	-1504
▁story	-1505
ization	-1506
▁accept	-1507
▁affect	-1508
▁childs	-1509
▁dreams	-1510
▁manner	-1511
▁uneasy	-1512
▁verify	-1513
traction	-1514
▁pattern	-1515
▁smaller	-1516
▁amygdala	-1517
▁children	-1518
▁consider	-1519
▁together	-1520
▁direction	-1521
▁rightness	-1522
▁mathematic	-1523
ft	-1524
kl	-1525
ags	-1526
ics	-1527
ief	-1528
ins	-1529
oom	-1530
pha	-1531
put	-1532
rag	-1533
ura	-1534
uth	-1535
zes	-1536
▁Ex	-1537
▁id	-1538
(85)	-1539
ency	-1540
ener	-1541
face	-1542
ided	-1543
ific	-1544
ious	-1545
ming	-1546
owed	-1547
ural	-1548
▁Dis	-1549
▁bar	-1550
▁cur	-1551
▁del	-1552
▁fut	-1553
▁lay	-1554
▁leg	-1555
▁mil	-1556
▁pop	-1557
▁rul	-1558
▁vis	-1559
(125)	-1560
(131)	-1561
(191)	-1562
(205)	-1563
(215)	-1564
(225)	-1565
(226)	-1566
(230)	-1567
pport	-1568
▁cond	-1569
▁prin	-1570
▁reli	-1571
▁trig	-1572
acteri	-1573
eaches	-1574
essing	-1575
icking	-1576
ormous	-1577
▁Trust	-1578
▁compa	-1579
▁compl	-1580
▁group	-1581
▁skill	-1582
mediate	-1583
present	-1584
▁descri	-1585
▁events	-1586
▁future	-1587
▁import	-1588
▁instru	-1589
▁measure	-1590
▁receive	-1591
▁surface	-1592
▁business	-1593
▁enormous	-1594
▁position	-1595
▁triggers	-1596
▁producing	-1597
▁accomplish	-1598
▁i	-1599
ado	-1600
gor	-1601
isl	-1602
ney	-1603
oot	-1604
ord	-1605
unt	-1606
▁Ar	-1607
▁At	-1608
▁gr	-1609
(49)	-1610
(59)	-1611
(61)	-1612
aled	-1613
anch	-1614
ched	-1615
iles	-1616
ours	-1617
outh	-1618
rief	-1619
vern	-1620
▁air	-1621
▁dew	-1622
▁eng	-1623
▁kni	-1624
▁tra	-1625
▁two	-1626
(107)	-1627
(116)	-1628
(139)	-1629
(143)	-1630
(213)	-1631
(219)	-1632
(254)	-1633
egans	-1634
error	-1635
iting	-1636
ufact	-1637
▁Just	-1638
▁Past	-1639
▁Pull	-1640
▁didn	-1641
▁only	-1642
▁oper	-1643
▁sequ	-1644
▁stra	-1645
▁sure	-1646
▁true	-1647
esting	-1648
icated	-1649
inning	-1650
porate	-1651
struct	-1652
▁These	-1653
▁amoun	-1654
▁autom	-1655
▁could	-1656
▁drive	-1657
▁emerg	-1658
▁every	-1659
▁progr	-1660
▁stops	-1661
▁tired	-1662
ability	-1663
▁gather	-1664
▁interp	-1665
▁matter	-1666
▁period	-1667
▁quiets	-1668
▁territ	-1669
▁continu	-1670
▁elegans	-1671
▁funding	-1672
▁located	-1673
▁produce	-1674
▁quality	-1675
▁Curiosity	-1676
▁characteri	-1677
▁difference	-1678
ee	-1679
alf	-1680
ash	-1681
ize	-1682
ock	-1683
ose	-1684
rop	-1685
thy	-1686
ton	-1687
▁Sc	-1688
▁Sm	-1689
▁lo	-1690
(41)	-1691
(80)	-1692
(81)	-1693
(95)	-1694
(97)	-1695
(98)	-1696
comm	-1697
ectr	-1698
▁add	-1699
▁arr	-1700
▁big	-1701
▁bro	-1702
▁enh	-1703
▁ind	-1704
▁mut	-1705
▁orb	-1706
▁pol	-1707
▁vol	-1708
(103)	-1709
(122)	-1710
(136)	-1711
(146)	-1712
(149)	-1713
(153)	-1714
(154)	-1715
(173)	-1716
(177)	-1717
(190)	-1718
(195)	-1719
(198)	-1720
(201)	-1721
(204)	-1722
(231)	-1723
(239)	-1724
(242)	-1725
(245)	-1726
(252)	-1727
(255)	-1728
eathe	-1729
ption	-1730
ually	-1731
▁Call	-1732
▁Real	-1733
▁arch	-1734
▁edge	-1735
▁head	-1736
▁less	-1737
▁orig	-1738
▁phys	-1739
▁pres	-1740
▁read	-1741
▁will	-1742
amming	-1743
thical	-1744
▁Grief	-1745
▁achie	-1746
▁hurts	-1747
▁influ	-1748
▁monit	-1749
▁moves	-1750
▁relax	-1751
▁stone	-1752
▁amount	-1753
▁custom	-1754
▁electr	-1755
▁making	-1756
▁partic	-1757
▁requir	-1758
▁should	-1759
▁signal	-1760
vernment	-1761
▁breathe	-1762
▁partici	-1763
▁function	-1764
▁instances	-1765
▁instincts	-1766
▁programming	-1767
cr	-1768
ex	-1769
ws	-1770
alu	-1771
ass	-1772
att	-1773
cle	-1774
man	-1775
min	-1776
oph	-1777
pel	-1778
rem	-1779
tis	-1780
▁Pr	-1781
▁Su	-1782
▁le	-1783
(48)	-1784
(50)	-1785
(57)	-1786
(68)	-1787
(75)	-1788
(78)	-1789
atal	-1790
olic	-1791
orts	-1792
plom	-1793
rain	-1794
▁Col	-1795
▁Who	-1796
▁beh	-1797
▁deb	-1798
▁def	-1799
▁est	-1800
▁lit	-1801
▁mot	-1802
▁uns	-1803
▁use	-1804
(113)	-1805
(118)	-1806
(119)	-1807
(126)	-1808
(127)	-1809
(141)	-1810
(142)	-1811
(144)	-1812
(151)	-1813
(157)	-1814
(178)	-1815
(179)	-1816
(183)	-1817
(189)	-1818
(207)	-1819
(241)	-1820
ament	-1821
ients	-1822
ished	-1823
oring	-1824
raphs	-1825
vered	-1826
▁Fire	-1827
▁capa	-1828
▁conn	-1829
▁danc	-1830
▁educ	-1831
▁life	-1832
▁most	-1833
▁prom	-1834
▁snow	-1835
▁syst	-1836
▁tens	-1837
▁then	-1838
▁vast	-1839
cealed	-1840
curate	-1841
ensive	-1842
ention	-1843
orough	-1844
pected	-1845
▁Still	-1846
▁There	-1847
▁alter	-1848
▁bloom	-1849
▁bring	-1850
▁carry	-1851
▁death	-1852
▁doing	-1853
▁drops	-1854
▁evalu	-1855
▁front	-1856
▁named	-1857
▁point	-1858
▁sever	-1859
▁space	-1860
▁steal	-1861
ication	-1862
itution	-1863
▁Danger	-1864
▁Warmth	-1865
▁aspect	-1866
▁bigger	-1867
▁design	-1868
▁diplom	-1869
▁interv	-1870
▁legisl	-1871
▁little	-1872
▁necess	-1873
▁rather	-1874
▁reason	-1875
▁reject	-1876
▁sculpt	-1877
▁Emotion	-1878
▁Settled	-1879
▁automob	-1880
▁dismiss	-1881
▁project	-1882
▁reaches	-1883
▁shouldn	-1884
▁visible	-1885
▁manufact	-1886
▁movement	-1887
▁represent	-1888
▁structure	-1889
▁territory	-1890
gn	-1891
ip	-1892
oe	-1893
ov	-1894
wr	-1895
ald	-1896
cum	-1897
een	-1898
enn	-1899
igr	-1900
iti	-1901
mic	-1902
pox	-1903
ros	-1904
une	-1905
▁As	-1906
▁Sk	-1907
▁oc	-1908
▁ri	-1909
(51)	-1910
(53)	-1911
(55)	-1912
(64)	-1913
(88)	-1914
(92)	-1915
(93)	-1916
ague	-1917
aily	-1918
apid	-1919
bers	-1920
cipl	-1921
enti	-1922
inks	-1923
ints	-1924
ited	-1925
ners	-1926
omes	-1927
oyed	-1928
part	-1929
pper	-1930
vent	-1931
▁Abs	-1932
▁Bel	-1933
▁fre	-1934
▁hel	-1935
▁shr	-1936
▁vot	-1937
(109)	-1938
(112)	-1939
(134)	-1940
(135)	-1941
(137)	-1942
(160)	-1943
(162)	-1944
(188)	-1945
(211)	-1946
(212)	-1947
(217)	-1948
(224)	-1949
(232)	-1950
(250)	-1951
ellig	-1952
icult	-1953
itude	-1954
onald	-1955
orous	-1956
ortex	-1957
outes	-1958
ppers	-1959
rying	-1960
sible	-1961
vance	-1962
▁Long	-1963
▁city	-1964
▁crit	-1965
▁dece	-1966
▁deep	-1967
▁grad	-1968
▁loud	-1969
▁noun	-1970
▁tool	-1971
ection	-1972
ficial	-1973
native	-1974
ustice	-1975
▁Vague	-1976
▁cause	-1977
▁daily	-1978
▁knows	-1979
▁model	-1980
▁south	-1981
ificant	-1982
istance	-1983
omestic	-1984
▁actual	-1985
▁cortex	-1986
▁engage	-1987
▁enough	-1988
▁famous	-1989
▁invent	-1990
▁neuros	-1991
▁recogn	-1992
▁resear	-1993
▁season	-1994
▁shapes	-1995
▁stream	-1996
▁thinks	-1997
▁Digital	-1998
▁achieve	-1999
▁reflect	-2000
▁shrinks	-2001
▁subject	-2002
▁support	-2003
stituting	-2004
▁checking	-2005
▁infinite	-2006
▁intellig	-2007
▁positive	-2008
▁sequence	-2009
▁immediate	-2010
▁typically	-2011
▁wrongness	-2012
▁particular	-2013
▁mathematical	-2014
▁neuroscience	-2015
▁characterized	-2016
,'	-2017
bb	-2018
po	-2019
ye	-2020
zz	-2021
▁(	-2022
aph	-2023
apt	-2024
ats	-2025
aus	-2026
avi	-2027
cid	-2028
cul	-2029
dul	-2030
ete	-2031
iel	-2032
ilk	-2033
ned	-2034
olu	-2035
oss	-2036
rit	-2037
uti	-2038
utr	-2039
▁Be	-2040
▁Im	-2041
▁Jo	-2042
▁af	-2043
▁cu	-2044
▁pi	-2045
▁sw	-2046
(42)	-2047
(54)	-2048
(60)	-2049
(67)	-2050
(72)	-2051
(73)	-2052
ages	-2053
alls	-2054
ames	-2055
enal	-2056
erti	-2057
fied	-2058
gree	-2059
olut	-2060
oney	-2061
oods	-2062
oose	-2063
orbs	-2064
orms	-2065
rist	-2066
thew	-2067
trem	-2068
uade	-2069
uces	-2070
veal	-2071
ycle	-2072
▁Gra	-2073
▁Pro	-2074
▁cap	-2075
▁cir	-2076
▁dig	-2077
▁jud	-2078
▁mas	-2079
▁mis	-2080
▁nec	-2081
▁rig	-2082
▁tem	-2083
▁unl	-2084
(104)	-2085
(108)	-2086
(114)	-2087
(128)	-2088
(156)	-2089
(158)	-2090
(165)	-2091
(166)	-2092
(168)	-2093
(182)	-2094
(185)	-2095
(196)	-2096
(202)	-2097
(203)	-2098
(240)	-2099
(243)	-2100
(244)	-2101
(249)	-2102
(253)	-2103
acing	-2104
aphor	-2105
asses	-2106
ators	-2107
cript	-2108
eding	-2109
eness	-2110
ested	-2111
ewish	-2112
gment	-2113
illed	-2114
ilton	-2115
imate	-2116
ketpl	-2117
onstr	-2118
ospel	-2119
owing	-2120
peare	-2121
press	-2122
raise	-2123
tives	-2124
urice	-2125
wards	-2126
▁buil	-2127
▁cent	-2128
▁dura	-2129
▁fact	-2130
▁fing	-2131
▁foll	-2132
▁goal	-2133
▁info	-2134
▁lean	-2135
▁loss	-2136
▁meet	-2137
▁scar	-2138
▁sens	-2139
▁sett	-2140
▁shar	-2141
▁tast	-2142
▁tech	-2143
atural	-2144
olving	-2145
rought	-2146
tained	-2147
utious	-2148
vestig	-2149
▁Below	-2150
▁awake	-2151
▁belie	-2152
▁board	-2153
▁earth	-2154
▁evolu	-2155
▁gener	-2156
▁goods	-2157
▁liter	-2158
▁money	-2159
▁popul	-2160
▁value	-2161
covered	-2162
olutely	-2163
rounded	-2164
▁States	-2165
▁United	-2166
▁across	-2167
▁attach	-2168
▁closes	-2169
▁degree	-2170
▁extrem	-2171
▁number	-2172
▁orbits	-2173
▁origin	-2174
▁pushes	-2175
▁script	-2176
▁though	-2177
▁volunt	-2178
accurate	-2179
ketplace	-2180
perative	-2181
utrients	-2182
▁contain	-2183
▁correct	-2184
▁country	-2185
▁express	-2186
▁working	-2187
akespeare	-2188
▁carrying	-2189
▁expected	-2190
▁influenc	-2191
▁provided	-2192
▁thorough	-2193
vernmental	-2194
▁concealed	-2195
▁difficult	-2196
▁evolution	-2197
▁injustice	-2198
▁artificial	-2199
▁continuous	-2200
▁instrument	-2201
▁consciousness	-2202
ja	-2203
ma	-2204
bru	-2205
cen	-2206
elo	-2207
ets	-2208
fer	-2209
fts	-2210
hip	-2211
ils	-2212
ksg	-2213
met	-2214
oda	-2215
ola	-2216
que	-2217
uit	-2218
ume	-2219
xyg	-2220
yan	-2221
▁Bl	-2222
▁Is	-2223
▁Ma	-2224
▁Mo	-2225
▁Pl	-2226
▁av	-2227
(40)	-2228
(45)	-2229
(63)	-2230
(65)	-2231
(89)	-2232
(90)	-2233
(99)	-2234
amps	-2235
anic	-2236
anja	-2237
anka	-2238
ator	-2239
berg	-2240
cuss	-2241
eaks	-2242
eard	-2243
eces	-2244
emia	-2245
endo	-2246
ergy	-2247
esth	-2248
fits	-2249
hips	-2250
iens	-2251
irst	-2252
ison	-2253
issa	-2254
male	-2255
name	-2256
onds	-2257
ostr	-2258
ovel	-2259
redi	-2260
reet	-2261
rict	-2262
urns	-2263
zone	-2264
▁Inf	-2265
▁Sub	-2266
▁bor	-2267
▁fac	-2268
▁fig	-2269
▁mel	-2270
▁non	-2271
▁ran	-2272
▁tri	-2273
▁won	-2274
(100)	-2275
(102)	-2276
(106)	-2277
(120)	-2278
(130)	-2279
(161)	-2280
(167)	-2281
(170)	-2282
(171)	-2283
(172)	-2284
(174)	-2285
(187)	-2286
(206)	-2287
(209)	-2288
(216)	-2289
(218)	-2290
(223)	-2291
(251)	-2292
aches	-2293
acron	-2294
acter	-2295
anced	-2296
anche	-2297
antly	-2298
aptor	-2299
auses	-2300
break	-2301
cause	-2302
centr	-2303
creas	-2304
ening	-2305
ipped	-2306
irect	-2307
itect	-2308
iture	-2309
lines	-2310
meter	-2311
osing	-2312
owers	-2313
sters	-2314
tilla	-2315
verse	-2316
xygen	-2317
▁Love	-2318
▁Sure	-2319
▁Turn	-2320
▁bull	-2321
▁card	-2322
▁cous	-2323
▁exci	-2324
▁mass	-2325
▁myth	-2326
▁opin	-2327
▁pass	-2328
▁requ	-2329
▁side	-2330
▁situ	-2331
▁size	-2332
▁stat	-2333
▁tend	-2334
▁thin	-2335
alfway	-2336
anjaro	-2337
annels	-2338
apidly	-2339
ategor	-2340
avored	-2341
bruary	-2342
eering	-2343
elocir	-2344
iewing	-2345
incere	-2346
isoner	-2347
itanic	-2348
itiate	-2349
pating	-2350
ulated	-2351
usters	-2352
vation	-2353
▁Trees	-2354
▁check	-2355
▁color	-2356
▁event	-2357
▁falls	-2358
▁fault	-2359
▁favor	-2360
▁forth	-2361
▁fruit	-2362
▁genre	-2363
▁heavy	-2364
▁order	-2365
▁rings	-2366
▁three	-2367
ielberg	-2368
olished	-2369
ostream	-2370
ountain	-2371
pelling	-2372
tending	-2373
▁Things	-2374
▁behavi	-2375
▁coming	-2376
▁depart	-2377
▁digits	-2378
▁energy	-2379
▁establ	-2380
▁female	-2381
▁humans	-2382
▁oxygen	-2383
▁prompt	-2384
▁proper	-2385
atteries	-2386
breaking	-2387
imanjaro	-2388
ksgiving	-2389
nerships	-2390
utiously	-2391
valanche	-2392
▁Clearly	-2393
▁advance	-2394
▁because	-2395
▁collect	-2396
▁complet	-2397
▁conflic	-2398
▁display	-2399
▁newness	-2400
▁perform	-2401
▁persist	-2402
▁prevent	-2403
▁recoils	-2404
▁related	-2405
▁settled	-2406
▁surname	-2407
▁usually	-2408
▁various	-2409
cessories	-2410
isticated	-2411
▁circular	-2412
▁directly	-2413
▁feelings	-2414
▁gathered	-2415
▁metaphor	-2416
▁opinions	-2417
▁performs	-2418
▁physical	-2419
▁standard	-2420
▁transfer	-2421
▁assessing	-2422
▁character	-2423
▁describes	-2424
▁important	-2425
▁simulated	-2426
▁unsettled	-2427
centrations	-2428
elociraptor	-2429
▁decoration	-2430
▁diplomatic	-2431
▁protecting	-2432
▁systematic	-2433
esthetically	-2434
▁encountered	-2435
▁significant	-2436
acronutrients	-2437
▁consideration	-2438
▁accomplishment	-2439
).	-2440
ik	-2441
pe	-2442
aby	-2443
ais	-2444
ams	-2445
arg	-2446
arv	-2447
bec	-2448
bur	-2449
cho	-2450
con	-2451
den	-2452
eau	-2453
era	-2454
erd	-2455
eue	-2456
fit	-2457
fox	-2458
ifi	-2459
iku	-2460
ila	-2461
ino	-2462
iny	-2463
mer	-2464
obb	-2465
off	-2466
omy	-2467
ona	-2468
rig	-2469
riz	-2470
tch	-2471
ung	-2472
yle	-2473
▁Ab	-2474
▁Ca	-2475
▁Fe	-2476
(43)	-2477
(44)	-2478
(69)	-2479
(71)	-2480
(76)	-2481
(82)	-2482
(87)	-2483
anet	-2484
arch	-2485
ario	-2486
aska	-2487
bell	-2488
bles	-2489
cont	-2490
curs	-2491
date	-2492
eans	-2493
ello	-2494
elon	-2495
enna	-2496
esco	-2497
ette	-2498
gary	-2499
hine	-2500
ickn	-2501
igan	-2502
illa	-2503
imed	-2504
ince	-2505
inse	-2506
itts	-2507
ling	-2508
nado	-2509
ndma	-2510
nony	-2511
olen	-2512
opes	-2513
ords	-2514
plex	-2515
psis	-2516
reci	-2517
rogs	-2518
rows	-2519
sing	-2520
tire	-2521
tres	-2522
uced	-2523
ummy	-2524
unks	-2525
▁Adj	-2526
▁Man	-2527
▁Mar	-2528
▁Ser	-2529
▁Une	-2530
▁ago	-2531
▁beg	-2532
▁coo	-2533
▁cos	-2534
▁cra	-2535
▁eye	-2536
▁ham	-2537
▁lab	-2538
▁lin	-2539
▁lon	-2540
▁pub	-2541
▁ret	-2542
▁rom	-2543
▁suc	-2544
▁sum	-2545
▁tou	-2546
▁wea	-2547
(105)	-2548
(152)	-2549
(169)	-2550
(176)	-2551
(194)	-2552
(197)	-2553
(210)	-2554
(214)	-2555
(233)	-2556
(235)	-2557
(236)	-2558
(238)	-2559
(246)	-2560
ading	-2561
amera	-2562
ander	-2563
anent	-2564
anket	-2565
apore	-2566
aries	-2567
bbian	-2568
becca	-2569
bsequ	-2570
burgh	-2571
choke	-2572
egral	-2573
elsea	-2574
emort	-2575
enced	-2576
fully	-2577
iking	-2578
inese	-2579
inton	-2580
inued	-2581
klace	-2582
krain	-2583
lands	-2584
ocked	-2585
odine	-2586
odule	-2587
oeira	-2588
ongwr	-2589
organ	-2590
osion	-2591
otomy	-2592
parag	-2593
phabe	-2594
riger	-2595
right	-2596
times	-2597
tions	-2598
undry	-2599
uries	-2600
ushed	-2601
using	-2602
uthor	-2603
works	-2604
▁Both	-2605
▁Made	-2606
▁Perm	-2607
▁area	-2608
▁bees	-2609
▁comb	-2610
▁conv	-2611
▁dick	-2612
▁exam	-2613
▁fran	-2614
▁hair	-2615
▁harv	-2616
▁hits	-2617
▁hurt	-2618
▁mich	-2619
▁mist	-2620
▁musk	-2621
▁onto	-2622
▁pete	-2623
▁quiz	-2624
▁scre	-2625
▁sold	-2626
▁stud	-2627
▁such	-2628
▁sugg	-2629
▁trav	-2630
▁very	-2631
▁wash	-2632
▁writ	-2633
abolic	-2634
agship	-2635
alette	-2636
anging	-2637
astles	-2638
atalog	-2639
cially	-2640
ciples	-2641
easure	-2642
enalty	-2643
enario	-2644
equila	-2645
ickles	-2646
igrate	-2647
ippers	-2648
irates	-2649
ivated	-2650
kraine	-2651
lement	-2652
nonyms	-2653
obbies	-2654
orders	-2655
ricted	-2656
rizona	-2657
ropism	-2658
suming	-2659
tivity	-2660
ualism	-2661
uation	-2662
▁Hello	-2663
▁Skill	-2664
▁Small	-2665
▁Where	-2666
▁accid	-2667
▁cheer	-2668
▁cloth	-2669
▁exist	-2670
▁fetch	-2671
▁found	-2672
▁hours	-2673
▁knife	-2674
▁perce	-2675
▁power	-2676
▁recal	-2677
▁scout	-2678
▁shape	-2679
▁skate	-2680
▁snack	-2681
▁socks	-2682
▁style	-2683
▁third	-2684
▁usual	-2685
▁verbs	-2686
▁voter	-2687
alities	-2688
areness	-2689
cursion	-2690
estants	-2691
inctive	-2692
itional	-2693
leeding	-2694
mentary	-2695
ometres	-2696
ousands	-2697
paragus	-2698
plating	-2699
pposing	-2700
taining	-2701
tigious	-2702
welling	-2703
winging	-2704
▁Christ	-2705
▁People	-2706
▁Strong	-2707
▁appear	-2708
▁assign	-2709
▁author	-2710
▁belief	-2711
▁commun	-2712
▁determ	-2713
▁device	-2714
▁nature	-2715
▁obtain	-2716
▁praise	-2717
▁region	-2718
▁relief	-2719
▁reveal	-2720
▁ronald	-2721
▁shells	-2722
▁shifts	-2723
▁sprays	-2724
▁update	-2725
▁vienna	-2726
ameworks	-2727
bsequent	-2728
ctionary	-2729
junction	-2730
oldemort	-2731
onstrate	-2732
organize	-2733
▁Hebbian	-2734
▁affects	-2735
▁believe	-2736
▁bothers	-2737
▁changed	-2738
▁compass	-2739
▁concept	-2740
▁differs	-2741
▁drought	-2742
▁entered	-2743
▁halfway	-2744
▁injured	-2745
▁returns	-2746
▁snowman	-2747
▁strange	-2748
▁success	-2749
continued	-2750
corporate	-2751
edication	-2752
ittsburgh	-2753
ongwriter	-2754
porations	-2755
▁animator	-2756
▁capacity	-2757
▁circuits	-2758
▁covering	-2759
▁directed	-2760
▁distinct	-2761
▁equipped	-2762
▁estimate	-2763
▁flavored	-2764
▁hamilton	-2765
▁investig	-2766
▁listener	-2767
▁memories	-2768
▁mistakes	-2769
▁peaceful	-2770
▁persuade	-2771
▁smallpox	-2772
▁striking	-2773
▁tortilla	-2774
▁vehicles	-2775
▁weighted	-2776
ategorical	-2777
rigeration	-2778
structured	-2779
▁Emotional	-2780
▁Permanent	-2781
▁avalanche	-2782
▁coverings	-2783
▁different	-2784
▁emergency	-2785
▁interpret	-2786
▁invention	-2787
▁materials	-2788
▁Resistance	-2789
▁displaying	-2790
▁everything	-2791
▁inaccurate	-2792
phabetically	-2793
▁contraction	-2794
▁marketplace	-2795
▁representing	-2796
▁volunteering	-2797
▁participating	-2798
mb	-2799
te	-2800
aho	-2801
ama	-2802
ata	-2803
atg	-2804
cer	-2805
ema	-2806
eps	-2807
fri	-2808
jor	-2809
mar	-2810
nal	-2811
ods	-2812
oni	-2813
oys	-2814
reh	-2815
uby	-2816
ury	-2817
usp	-2818
vre	-2819
yer	-2820
ype	-2821
▁De	-2822
▁Fl	-2823
▁Fr	-2824
▁Sn	-2825
(66)	-2826
(79)	-2827
(86)	-2828
acon	-2829
aims	-2830
bric	-2831
eamb	-2832
edan	-2833
elif	-2834
ench	-2835
enda	-2836
erge	-2837
etts	-2838
fred	-2839
ined	-2840
klin	-2841
lues	-2842
mark	-2843
mber	-2844
neys	-2845
odka	-2846
ooth	-2847
ored	-2848
orth	-2849
otal	-2850
pack	-2851
pans	-2852
pear	-2853
peas	-2854
poon	-2855
ties	-2856
titu	-2857
ucks	-2858
ucky	-2859
umps	-2860
unch	-2861
urer	-2862
▁Out	-2863
▁Ref	-2864
▁aff	-2865
▁arg	-2866
▁bas	-2867
▁cri	-2868
▁cut	-2869
▁div	-2870
▁far	-2871
▁ill	-2872
▁lim	-2873
▁pur	-2874
▁uni	-2875
▁wra	-2876
(101)	-2877
(121)	-2878
(147)	-2879
(148)	-2880
(150)	-2881
(199)	-2882
(221)	-2883
(227)	-2884
(229)	-2885
(234)	-2886
achus	-2887
allon	-2888
annah	-2889
archy	-2890
arian	-2891
atgpt	-2892
avors	-2893
board	-2894
chest	-2895
cycle	-2896
eaten	-2897
ently	-2898
epper	-2899
erous	-2900
gress	-2901
icity	-2902
idney	-2903
ieval	-2904
istor	-2905
orism	-2906
ormul	-2907
otype	-2908
ource	-2909
oyfri	-2910
pathy	-2911
phasi	-2912
struc	-2913
super	-2914
thony	-2915
ustle	-2916
vised	-2917
▁Rain	-2918
▁Unex	-2919
▁bare	-2920
▁barn	-2921
▁blad	-2922
▁fash	-2923
▁foot	-2924
▁genu	-2925
▁harm	-2926
▁lamp	-2927
▁plan	-2928
▁rais	-2929
▁remo	-2930
▁silk	-2931
▁slow	-2932
▁tabl	-2933
active	-2934
aining	-2935
amento	-2936
ampire	-2937
anding	-2938
appear	-2939
common	-2940
elance	-2941
elding	-2942
erical	-2943
ground	-2944
imedes	-2945
imming	-2946
ipping	-2947
marine	-2948
nalist	-2949
ulance	-2950
vision	-2951
▁Being	-2952
▁Those	-2953
▁appro	-2954
▁avail	-2955
▁brief	-2956
▁broad	-2957
▁coats	-2958
▁input	-2959
▁joins	-2960
▁keeps	-2961
▁loose	-2962
▁major	-2963
▁queen	-2964
▁rinse	-2965
▁round	-2966
▁ruler	-2967
▁satis	-2968
▁truth	-2969
▁valid	-2970
alaries	-2971
anation	-2972
arative	-2973
ardener	-2974
chestra	-2975
easpoon	-2976
eatened	-2977
ellular	-2978
etition	-2979
ickpeas	-2980
mission	-2981
telling	-2982
titudes	-2983
▁awards	-2984
▁bodies	-2985
▁compan	-2986
▁cousin	-2987
▁detail	-2988
▁earned	-2989
▁fabric	-2990
▁finger	-2991
▁gained	-2992
▁having	-2993
▁histor	-2994
▁marker	-2995
▁prizes	-2996
▁secret	-2997
▁smooth	-2998
▁tempor	-2999
▁treats	-3000
▁warmer	-3001
eambally	-3002
epperoni	-3003
ertified	-3004
ormulate	-3005
oyfriend	-3006
perately	-3007
phasizes	-3008
redients	-3009
ungarian	-3010
uspended	-3011
▁Serving	-3012
▁barbell	-3013
▁consist	-3014
▁created	-3015
▁cutting	-3016
▁delight	-3017
▁discuss	-3018
▁enjoyed	-3019
▁expense	-3020
▁extreme	-3021
▁fashion	-3022
▁machine	-3023
▁monitor	-3024
▁natural	-3025
▁notable	-3026
▁palette	-3027
▁rapidly	-3028
▁restore	-3029
▁testing	-3030
▁tornado	-3031
▁touched	-3032
▁trained	-3033
▁vehicle	-3034
achusetts	-3035
acramento	-3036
knowledge	-3037
onization	-3038
reciation	-3039
structive	-3040
▁bringing	-3041
▁conflict	-3042
▁designed	-3043
▁emotions	-3044
▁exciting	-3045
▁requires	-3046
▁rigorous	-3047
▁straight	-3048
▁stronger	-3049
▁vertical	-3050
▁whatever	-3051
supervised	-3052
▁architect	-3053
▁artichoke	-3054
▁available	-3055
▁beginning	-3056
▁carefully	-3057
▁condition	-3058
▁disappear	-3059
▁efficient	-3060
▁happening	-3061
▁organized	-3062
▁Unexpected	-3063
▁activation	-3064
▁completely	-3065
▁permission	-3066
▁pretending	-3067
▁principles	-3068
▁propelling	-3069
▁situations	-3070
▁supporting	-3071
▁Coleambally	-3072
▁distinctive	-3073
▁experienced	-3074
▁explanation	-3075
▁intelligent	-3076
▁organization	-3077
▁partnerships	-3078
▁velociraptor	-3079
fa	-3080
pu	-3081
ady	-3082
avy	-3083
bon	-3084
can	-3085
ces	-3086
cky	-3087
ded	-3088
eal	-3089
ecu	-3090
hal	-3091
ibr	-3092
ike	-3093
iov	-3094
pan	-3095
ppi	-3096
rol	-3097
san	-3098
uzz	-3099
▁Ed	-3100
▁Fa	-3101
▁Ob	-3102
▁Op	-3103
▁eu	-3104
▁ow	-3105
▁we	-3106
(77)	-3107
(83)	-3108
(94)	-3109
acks	-3110
alse	-3111
atch	-3112
ater	-3113
ball	-3114
cens	-3115
clid	-3116
come	-3117
eads	-3118
eger	-3119
eled	-3120
erts	-3121
etry	-3122
ffes	-3123
gans	-3124
ging	-3125
goda	-3126
hand	-3127
iced	-3128
ilos	-3129
iraq	-3130
ired	-3131
isms	-3132
issi	-3133
kane	-3134
list	-3135
ndra	-3136
osed	-3137
para	-3138
port	-3139
pose	-3140
rito	-3141
self	-3142
tirs	-3143
▁Add	-3144
▁All	-3145
▁Enh	-3146
▁Est	-3147
▁Inj	-3148
▁Mus	-3149
▁Mut	-3150
▁Too	-3151
▁amb	-3152
▁bed	-3153
▁bra	-3154
▁cho	-3155
▁cpu	-3156
▁cry	-3157
▁cup	-3158
▁dou	-3159
▁ern	-3160
▁fil	-3161
▁ine	-3162
▁ing	-3163
▁rep	-3164
▁scr	-3165
▁she	-3166
▁six	-3167
▁tic	-3168
▁une	-3169
(123)	-3170
(124)	-3171
(140)	-3172
(180)	-3173
(186)	-3174
(192)	-3175
(193)	-3176
(228)	-3177
(237)	-3178
anged	-3179
arget	-3180
cumul	-3181
ecute	-3182
elers	-3183
icate	-3184
icted	-3185
inder	-3186
inent	-3187
iovas	-3188
melon	-3189
minal	-3190
pture	-3191
third	-3192
verty	-3193
▁Comm	-3194
▁Conf	-3195
▁Gira	-3196
▁Inst	-3197
▁Peri	-3198
▁Reli	-3199
▁With	-3200
▁adds	-3201
▁bent	-3202
▁bows	-3203
▁cord	-3204
▁cost	-3205
▁dark	-3206
▁data	-3207
▁debt	-3208
▁decl	-3209
▁dive	-3210
▁elif	-3211
▁emmy	-3212
▁espe	-3213
▁fame	-3214
▁fifa	-3215
▁fold	-3216
▁furn	-3217
▁glow	-3218
▁herd	-3219
▁hive	-3220
▁idea	-3221
▁intu	-3222
▁iraq	-3223
▁jail	-3224
▁jobs	-3225
▁joel	-3226
▁june	-3227
▁knew	-3228
▁lane	-3229
▁last	-3230
▁mine	-3231
▁miss	-3232
▁moon	-3233
▁navy	-3234
▁noir	-3235
▁oral	-3236
▁oval	-3237
▁pile	-3238
▁prac	-3239
▁prep	-3240
▁rico	-3241
▁ring	-3242
▁roll	-3243
▁ruby	-3244
▁ryan	-3245
▁scal	-3246
▁sees	-3247
▁show	-3248
▁shut	-3249
▁soon	-3250
▁soph	-3251
▁suns	-3252
▁sust	-3253
▁tags	-3254
▁tire	-3255
▁verb	-3256
▁vine	-3257
▁wall	-3258
▁wifi	-3259
▁work	-3260
estern	-3261
idence	-3262
lights	-3263
parent	-3264
reting	-3265
tively	-3266
ultipl	-3267
▁Inter	-3268
▁abdul	-3269
▁after	-3270
▁amino	-3271
▁apple	-3272
▁bacon	-3273
▁beans	-3274
▁beard	-3275
▁beast	-3276
▁becom	-3277
▁blood	-3278
▁blues	-3279
▁brady	-3280
▁broke	-3281
▁bulls	-3282
▁bumps	-3283
▁burns	-3284
▁buyer	-3285
▁canon	-3286
▁chief	-3287
▁comic	-3288
▁comma	-3289
▁credi	-3290
▁cross	-3291
▁crows	-3292
▁curve	-3293
▁debts	-3294
▁devil	-3295
▁diced	-3296
▁drift	-3297
▁ended	-3298
▁false	-3299
▁final	-3300
▁fines	-3301
▁frogs	-3302
▁glove	-3303
▁guess	-3304
▁gummy	-3305
▁haiku	-3306
▁hopes	-3307
▁humid	-3308
▁idaho	-3309
▁janet	-3310
▁joker	-3311
▁kendo	-3312
▁lands	-3313
▁lanka	-3314
▁limbs	-3315
▁liner	-3316
▁liver	-3317
▁loans	-3318
▁locks	-3319
▁louis	-3320
▁lucky	-3321
▁lying	-3322
▁mahal	-3323
▁marsh	-3324
▁mason	-3325
▁maths	-3326
▁milan	-3327
▁milky	-3328
▁mills	-3329
▁month	-3330
▁motor	-3331
▁moved	-3332
▁nickn	-3333
▁numbe	-3334
▁obama	-3335
▁occur	-3336
▁ozone	-3337
▁packs	-3338
▁parag	-3339
▁paths	-3340
▁paved	-3341
▁piles	-3342
▁poles	-3343
▁preci	-3344
▁prize	-3345
▁prone	-3346
▁queue	-3347
▁ramps	-3348
▁recor	-3349
▁reser	-3350
▁rocky	-3351
▁romeo	-3352
▁ruled	-3353
▁scarf	-3354
▁screw	-3355
▁sedan	-3356
▁sends	-3357
▁sheer	-3358
▁shift	-3359
▁shine	-3360
▁shiny	-3361
▁slams	-3362
▁spans	-3363
▁stirs	-3364
▁storm	-3365
▁tasty	-3366
▁tools	-3367
▁traps	-3368
▁trips	-3369
▁tying	-3370
▁villa	-3371
▁viola	-3372
▁vodka	-3373
atching	-3374
censing	-3375
eastern	-3376
ensions	-3377
ibrates	-3378
ilosoph	-3379
issippi	-3380
onsible	-3381
quiring	-3382
▁Patter	-3383
▁Please	-3384
▁absent	-3385
▁agenda	-3386
▁alaska	-3387
▁alfred	-3388
▁aliens	-3389
▁alkane	-3390
▁anemia	-3391
▁backed	-3392
▁blocks	-3393
▁border	-3394
▁brains	-3395
▁brakes	-3396
▁breaks	-3397
▁builds	-3398
▁bureau	-3399
▁button	-3400
▁camera	-3401
▁carton	-3402
▁centre	-3403
▁choose	-3404
▁chords	-3405
▁chunks	-3406
▁claims	-3407
▁cosmic	-3408
▁crafts	-3409
▁dancer	-3410
▁drives	-3411
▁drying	-3412
▁effect	-3413
▁emerge	-3414
▁enjoys	-3415
▁equals	-3416
▁ernest	-3417
▁euclid	-3418
▁expect	-3419
▁follow	-3420
▁fought	-3421
▁frames	-3422
▁fresco	-3423
▁gallon	-3424
▁goalie	-3425
▁gospel	-3426
▁grades	-3427
▁grants	-3428
▁gravel	-3429
▁groups	-3430
▁guests	-3431
▁hannah	-3432
▁hiding	-3433
▁hustle	-3434
▁images	-3435
▁injury	-3436
▁intern	-3437
▁iodine	-3438
▁jewish	-3439
▁kidney	-3440
▁killed	-3441
▁knives	-3442
▁labels	-3443
▁launch	-3444
▁layers	-3445
▁learns	-3446
▁lesser	-3447
▁listed	-3448
▁louvre	-3449
▁lowers	-3450
▁marvel	-3451
▁misuse	-3452
▁modify	-3453
▁module	-3454
▁morale	-3455
▁motion	-3456
▁openly	-3457
▁organs	-3458
▁owning	-3459
▁packed	-3460
▁pagoda	-3461
▁pieces	-3462
▁played	-3463
▁please	-3464
▁poetry	-3465
▁points	-3466
▁prince	-3467
▁profit	-3468
▁public	-3469
▁really	-3470
▁recomm	-3471
▁relies	-3472
▁resume	-3473
▁retire	-3474
▁routes	-3475
▁rowing	-3476
▁runoff	-3477
▁sandra	-3478
▁sauces	-3479
▁scored	-3480
▁senses	-3481
▁series	-3482
▁served	-3483
▁shovel	-3484
▁showed	-3485
▁simple	-3486
▁skates	-3487
▁smells	-3488
▁sought	-3489
▁spends	-3490
▁spider	-3491
▁stated	-3492
▁stolen	-3493
▁straws	-3494
▁street	-3495
▁strips	-3496
▁submit	-3497
▁sugary	-3498
▁summer	-3499
▁target	-3500
▁terror	-3501
▁themed	-3502
▁thirst	-3503
▁thrust	-3504
▁ticket	-3505
▁torque	-3506
▁trench	-3507
▁tribes	-3508
▁trucks	-3509
▁turned	-3510
▁unlock	-3511
▁unused	-3512
▁waiter	-3513
▁wander	-3514
angement	-3515
culation	-3516
ertained	-3517
▁absorbs	-3518
▁accumul	-3519
▁address	-3520
▁adjusts	-3521
▁alright	-3522
▁altered	-3523
▁analyst	-3524
▁anthony	-3525
▁arizona	-3526
▁artisan	-3527
▁aspects	-3528
▁belongs	-3529
▁blanket	-3530
▁burgers	-3531
▁burrito	-3532
▁capture	-3533
▁castles	-3534
▁catalog	-3535
▁chatgpt	-3536
▁chelsea	-3537
▁chinese	-3538
▁choices	-3539
▁clauses	-3540
▁clinton	-3541
▁commons	-3542
▁compile	-3543
▁compreh	-3544
▁connect	-3545
▁contact	-3546
▁control	-3547
▁critics	-3548
▁crushed	-3549
▁crypsis	-3550
▁dancers	-3551
▁empathy	-3552
▁ethical	-3553
▁execute	-3554
▁fathers	-3555
▁finland	-3556
▁firefox	-3557
▁flavors	-3558
▁forests	-3559
▁forming	-3560
▁glasses	-3561
▁gliding	-3562
▁grandma	-3563
▁growing	-3564
▁handled	-3565
▁harvest	-3566
▁heating	-3567
▁hobbies	-3568
▁integer	-3569
▁islands	-3570
▁kicking	-3571
▁knocked	-3572
▁laundry	-3573
▁layered	-3574
▁lending	-3575
▁loading	-3576
▁matthew	-3577
▁maurice	-3578
▁melissa	-3579
▁migrate	-3580
▁multipl	-3581
▁nations	-3582
▁numbers	-3583
▁optical	-3584
▁outfits	-3585
▁peaches	-3586
▁penalty	-3587
▁perfect	-3588
▁picking	-3589
▁pickles	-3590
▁pirates	-3591
▁placing	-3592
▁posters	-3593
▁poverty	-3594
▁prepara	-3595
▁purpose	-3596
▁ranking	-3597
▁rebecca	-3598
▁reduced	-3599
▁resorts	-3600
▁roberts	-3601
▁robotic	-3602
▁schools	-3603
▁seconds	-3604
▁segment	-3605
▁sending	-3606
▁serving	-3607
▁sharing	-3608
▁sincere	-3609
▁skilled	-3610
▁sliding	-3611
▁suggest	-3612
▁sustain	-3613
▁tablets	-3614
▁tequila	-3615
▁titanic	-3616
▁tropism	-3617
▁ukraine	-3618
▁vampire	-3619
▁variant	-3620
▁watched	-3621
▁welding	-3622
▁written	-3623
tractions	-3624
▁Giraffes	-3625
▁Skillful	-3626
▁analyzed	-3627
▁attitude	-3628
▁autotomy	-3629
▁backpack	-3630
▁bleeding	-3631
▁blooming	-3632
▁boarding	-3633
▁braiding	-3634
▁broadway	-3635
▁calories	-3636
▁capoeira	-3637
▁cellular	-3638
▁channels	-3639
▁clippers	-3640
▁clusters	-3641
▁collects	-3642
▁colorado	-3643
▁commands	-3644
▁congress	-3645
▁convince	-3646
▁counting	-3647
▁criminal	-3648
▁crossing	-3649
▁customer	-3650
▁december	-3651
▁defining	-3652
▁depicted	-3653
▁displays	-3654
▁division	-3655
▁domestic	-3656
▁donation	-3657
▁driveway	-3658
▁dwelling	-3659
▁enhanced	-3660
▁enhances	-3661
▁everyone	-3662
▁families	-3663
▁february	-3664
▁flagship	-3665
▁formally	-3666
▁founding	-3667
▁fountain	-3668
▁franklin	-3669
▁gardener	-3670
▁illusion	-3671
▁indirect	-3672
▁infinity	-3673
▁initiate	-3674
▁injuries	-3675
▁integral	-3676
▁iostream	-3677
▁journeys	-3678
▁landmark	-3679
▁learning	-3680
▁location	-3681
▁managing	-3682
▁meetings	-3683
▁michigan	-3684
▁monarchy	-3685
▁monitors	-3686
▁mutually	-3687
▁necklace	-3688
▁nickname	-3689
▁numerous	-3690
▁opposing	-3691
▁outbreak	-3692
▁outlines	-3693
▁periodic	-3694
▁playlist	-3695
▁populism	-3696
▁prisoner	-3697
▁readable	-3698
▁remained	-3699
▁reminder	-3700
▁required	-3701
▁salaries	-3702
▁scalable	-3703
▁scenario	-3704
▁severity	-3705
▁shifting	-3706
▁shipping	-3707
▁spelling	-3708
▁startled	-3709
▁stealing	-3710
▁stepping	-3711
▁students	-3712
▁sunshine	-3713
▁swimming	-3714
▁swinging	-3715
▁synonyms	-3716
▁teaspoon	-3717
▁tensions	-3718
▁trapping	-3719
▁treating	-3720
▁uncommon	-3721
▁universe	-3722
▁watching	-3723
▁yourself	-3724
iovascular	-3725
▁Confusion	-3726
▁abolished	-3727
▁accidents	-3728
▁altitudes	-3729
▁ambulance	-3730
▁animation	-3731
▁arranging	-3732
▁asparagus	-3733
▁batteries	-3734
▁boyfriend	-3735
▁certified	-3736
▁chickpeas	-3737
▁confusion	-3738
▁construct	-3739
▁consuming	-3740
▁contained	-3741
▁corporate	-3742
▁demanding	-3743
▁depending	-3744
▁disorders	-3745
▁educating	-3746
▁education	-3747
▁electrons	-3748
▁emergence	-3749
▁estimates	-3750
▁evaluates	-3751
▁existence	-3752
▁explosion	-3753
▁expresses	-3754
▁finishing	-3755
▁freelance	-3756
▁furniture	-3757
▁handstand	-3758
▁headaches	-3759
▁hungarian	-3760
▁instantly	-3761
▁intervals	-3762
▁intuition	-3763
▁inventory	-3764
▁licensing	-3765
▁lifecycle	-3766
▁literally	-3767
▁locations	-3768
▁metabolic	-3769
▁motivated	-3770
▁mutualism	-3771
▁necessary	-3772
▁necessity	-3773
▁numerical	-3774
▁offensive	-3775
▁orchestra	-3776
▁packaging	-3777
▁pepperoni	-3778
▁perimeter	-3779
▁philosoph	-3780
▁projected	-3781
▁prompting	-3782
▁prototype	-3783
▁recursion	-3784
▁requested	-3785
▁respected	-3786
▁restoring	-3787
▁retrieval	-3788
▁sculpture	-3789
▁singapore	-3790
▁spielberg	-3791
▁stillness	-3792
▁storyline	-3793
▁streaming	-3794
▁submarine	-3795
▁suspended	-3796
▁thousands	-3797
▁travelers	-3798
▁unethical	-3799
▁voldemort	-3800
▁absolutely	-3801
▁archimedes	-3802
▁automobile	-3803
▁beforehand	-3804
▁cautiously	-3805
▁commentary	-3806
▁customized	-3807
▁dictionary	-3808
▁discovered	-3809
▁durability	-3810
▁emphasizes	-3811
▁especially	-3812
▁frameworks	-3813
▁functional	-3814
▁generators	-3815
▁graduation	-3816
▁highlights	-3817
▁importance	-3818
▁influences	-3819
▁journalist	-3820
▁kilometres	-3821
▁medication	-3822
▁paragraphs	-3823
▁pittsburgh	-3824
▁preventing	-3825
▁protective	-3826
▁relativity	-3827
▁reorganize	-3828
▁restricted	-3829
▁sacramento	-3830
▁sculptures	-3831
▁seasonings	-3832
▁settlement	-3833
▁skateboard	-3834
▁songwriter	-3835
▁subsequent	-3836
▁threatened	-3837
▁treatments	-3838
▁validation	-3839
▁variations	-3840
▁watermelon	-3841
▁accessories	-3842
▁acknowledge	-3843
▁adjustments	-3844
▁advancement	-3845
▁alternative	-3846
▁arrangement	-3847
▁attractions	-3848
▁automobiles	-3849
▁behaviorism	-3850
▁categorical	-3851
▁conjunction	-3852
▁contestants	-3853
▁cooperative	-3854
▁credibility	-3855
▁declarative	-3856
▁decorations	-3857
▁demonstrate	-3858
▁departments	-3859
▁desperately	-3860
▁entertained	-3861
▁genetically	-3862
▁incorporate	-3863
▁inefficient	-3864
▁ingredients	-3865
▁instability	-3866
▁institution	-3867
▁interactive	-3868
▁kilimanjaro	-3869
▁legislation	-3870
▁legislature	-3871
▁maintaining	-3872
▁manufacture	-3873
▁mississippi	-3874
▁prestigious	-3875
▁recommended	-3876
▁reformulate	-3877
▁researching	-3878
▁reservation	-3879
▁responsible	-3880
▁shakespeare	-3881
▁strengthens	-3882
▁transparent	-3883
▁underground	-3884
▁appreciation	-3885
▁colonization	-3886
▁constructive	-3887
▁corporations	-3888
▁discontinued	-3889
▁governmental	-3890
▁interpreting	-3891
▁interviewing	-3892
▁manufacturer	-3893
▁recalibrates	-3894
▁segmentation	-3895
▁southeastern	-3896
▁storytelling	-3897
▁substituting	-3898
▁thanksgiving	-3899
▁unstructured	-3900
▁unsupervised	-3901
▁aesthetically	-3902
▁communication	-3903
▁contemplating	-3904
▁investigating	-3905
▁massachusetts	-3906
▁personalities	-3907
▁philosophical	-3908
▁refrigeration	-3909
▁sophisticated	-3910
▁alphabetically	-3911
▁cardiovascular	-3912
▁concentrations	-3913
▁groundbreaking	-3914
▁interpretation	-3915
▁macronutrients	-3916
▁multiplication	-3917
▁sustainability	-3918
▁accomplishments	-3919
hy	-3920
ni	-3921
▁z	-3922
air	-3923
bil	-3924
dle	-3925
eld	-3926
ero	-3927
ict	-3928
ier	-3929
ild	-3930
kin	-3931
oca	-3932
plu	-3933
sur	-3934
tha	-3935
ven	-3936
▁Di	-3937
▁Go	-3938
▁Gu	-3939
▁La	-3940
▁Sp	-3941
▁ga	-3942
(84)	-3943
ania	-3944
eeps	-3945
imbs	-3946
made	-3947
ones	-3948
reek	-3949
sual	-3950
▁Att	-3951
▁Bra	-3952
▁Bur	-3953
▁Equ	-3954
▁Kil	-3955
▁Met	-3956
▁Mon	-3957
▁Neu	-3958
▁Par	-3959
▁Sec	-3960
▁adm	-3961
▁dam	-3962
▁eff	-3963
▁ins	-3964
▁job	-3965
▁med	-3966
▁mom	-3967
▁rad	-3968
▁squ	-3969
▁whe	-3970
(110)	-3971
ailed	-3972
ecess	-3973
endar	-3974
ering	-3975
iddle	-3976
ident	-3977
inary	-3978
ishes	-3979
occer	-3980
olent	-3981
onder	-3982
ormal	-3983
ptive	-3984
thods	-3985
trary	-3986
velop	-3987
vices	-3988
▁Anim	-3989
▁Cont	-3990
▁East	-3991
▁Educ	-3992
▁Feel	-3993
▁Math	-3994
▁Rest	-3995
▁argu	-3996
▁deri	-3997
▁encl	-3998
▁four	-3999
▁help	-4000
▁legs	-4001
▁liqu	-4002
▁mark	-4003
▁owed	-4004
▁plot	-4005
▁seed	-4006
▁stic	-4007
▁stop	-4008
▁symb	-4009
▁webs	-4010
▁zero	-4011
erious	-4012
gorian	-4013
iction	-4014
licant	-4015
ources	-4016
oyment	-4017
parate	-4018
stance	-4019
ximate	-4020
▁Displ	-4021
▁Emerg	-4022
▁Greek	-4023
▁Keeps	-4024
▁Named	-4025
▁conne	-4026
▁doors	-4027
▁error	-4028
▁facts	-4029
▁field	-4030
▁image	-4031
▁modif	-4032
▁optim	-4033
▁parts	-4034
▁polit	-4035
▁secur	-4036
ectives	-4037
icating	-4038
ination	-4039
lightly	-4040
stitute	-4041
▁Affect	-4042
▁Custom	-4043
▁Others	-4044
▁Routes	-4045
▁Sculpt	-4046
▁accoun	-4047
▁damage	-4048
▁effort	-4049
▁flower	-4050
▁former	-4051
▁giving	-4052
▁growth	-4053
▁living	-4054
▁moment	-4055
▁nation	-4056
▁plural	-4057
▁within	-4058
▁wonder	-4059
▁worthy	-4060
bilities	-4061
pression	-4062
▁Increas	-4063
▁Without	-4064
▁actions	-4065
▁clothes	-4066
▁conduct	-4067
▁develop	-4068
▁getting	-4069
▁gradual	-4070
▁letters	-4071
▁raising	-4072
▁regular	-4073
▁respons	-4074
▁resting	-4075
▁shifted	-4076
▁stopped	-4077
▁weaving	-4078
▁weights	-4079
▁calendar	-4080
▁detailed	-4081
▁handmade	-4082
▁original	-4083
▁pleasure	-4084
▁possible	-4085
▁progress	-4086
▁research	-4087
▁separate	-4088
▁services	-4089
▁slightly	-4090
▁Animation	-4091
▁Christian	-4092
▁Gregorian	-4093
▁dangerous	-4094
▁organisms	-4095
▁president	-4096
▁remaining	-4097
▁statement	-4098
▁Accomplish	-4099
▁appearance	-4100
▁connecting	-4101
▁connection	-4102
▁structures	-4103
▁approximate	-4104
▁calculation	-4105
▁mathematics	-4106
▁Substituting	-4107
▁measurements	-4108
▁understanding	-4109
HT	-4110
bt	-4111
ga	-4112
ait	-4113
bit	-4114
bro	-4115
clu	-4116
def	-4117
ico	-4118
lec	-4119
lif	-4120
not	-4121
osh	-4122
ria	-4123
til	-4124
tra	-4125
ucl	-4126
unk	-4127
▁Am	-4128
▁Aw	-4129
▁Co	-4130
▁Gl	-4131
▁Hi	-4132
▁Ja	-4133
▁Ke	-4134
▁Oc	-4135
▁bi	-4136
▁fo	-4137
▁tw	-4138
▁ul	-4139
(96)	-4140
abet	-4141
ahal	-4142
aped	-4143
apor	-4144
bing	-4145
dden	-4146
ecul	-4147
eeze	-4148
erci	-4149
erms	-4150
oday	-4151
ools	-4152
otog	-4153
pain	-4154
raid	-4155
stic	-4156
tial	-4157
uest	-4158
ults	-4159
utes	-4160
▁App	-4161
▁Arr	-4162
▁Ask	-4163
▁Cal	-4164
▁Car	-4165
▁Cur	-4166
▁Def	-4167
▁Dev	-4168
▁Dri	-4169
▁Eng	-4170
▁Fin	-4171
▁Inv	-4172
▁Lay	-4173
▁Mat	-4174
▁Pre	-4175
▁Tri	-4176
▁WHT	-4177
▁Whe	-4178
▁ang	-4179
▁exc	-4180
▁fix	-4181
▁gas	-4182
▁how	-4183
▁inh	-4184
▁lot	-4185
▁nar	-4186
▁ord	-4187
▁rhy	-4188
▁rot	-4189
▁tal	-4190
▁tas	-4191
▁tur	-4192
▁wid	-4193
(222)	-4194
(247)	-4195
actly	-4196
arily	-4197
ashed	-4198
celed	-4199
cient	-4200
defin	-4201
eased	-4202
inely	-4203
ional	-4204
lying	-4205
onent	-4206
ortun	-4207
pants	-4208
quiry	-4209
ropri	-4210
roups	-4211
timul	-4212
ugust	-4213
▁Able	-4214
▁Baby	-4215
▁Capa	-4216
▁Crit	-4217
▁Danc	-4218
▁Dark	-4219
▁Each	-4220
▁Expr	-4221
▁From	-4222
▁High	-4223
▁Home	-4224
▁List	-4225
▁Prov	-4226
▁Rico	-4227
▁Situ	-4228
▁Tast	-4229
▁Vast	-4230
▁Wait	-4231
▁alph	-4232
▁arms	-4233
▁baby	-4234
▁chem	-4235
▁cult	-4236
▁dest	-4237
▁elev	-4238
▁ends	-4239
▁face	-4240
▁feet	-4241
▁flow	-4242
▁gaps	-4243
▁incl	-4244
▁item	-4245
▁laws	-4246
▁line	-4247
▁malf	-4248
▁neck	-4249
▁news	-4250
▁ones	-4251
▁poin	-4252
▁poll	-4253
▁pred	-4254
▁radi	-4255
▁seen	-4256
▁sway	-4257
▁term	-4258
▁trad	-4259
▁tree	-4260
▁type	-4261
▁unit	-4262
▁util	-4263
▁wake	-4264
▁wear	-4265
▁well	-4266
acting	-4267
anting	-4268
atable	-4269
culine	-4270
ealing	-4271
eatens	-4272
eating	-4273
ements	-4274
ential	-4275
idered	-4276
inated	-4277
olecul	-4278
paring	-4279
peated	-4280
phones	-4281
prints	-4282
rowing	-4283
tician	-4284
ustard	-4285
worthy	-4286
▁Abdul	-4287
▁Activ	-4288
▁Alter	-4289
▁Analy	-4290
▁Death	-4291
▁Estim	-4292
▁Mahal	-4293
▁Maths	-4294
▁Music	-4295
▁Ocean	-4296
▁Older	-4297
▁Sleep	-4298
▁Sound	-4299
▁Third	-4300
▁agree	-4301
▁arise	-4302
▁basis	-4303
▁blend	-4304
▁bound	-4305
▁crops	-4306
▁cucum	-4307
▁doubt	-4308
▁equal	-4309
▁flows	-4310
▁habit	-4311
▁haven	-4312
▁imper	-4313
▁impro	-4314
▁intro	-4315
▁later	-4316
▁level	-4317
▁lonel	-4318
▁makes	-4319
▁match	-4320
▁novel	-4321
▁ocean	-4322
▁older	-4323
▁pleas	-4324
▁quant	-4325
▁sight	-4326
▁simpl	-4327
▁sixty	-4328
▁sport	-4329
▁terms	-4330
▁their	-4331
▁these	-4332
▁tight	-4333
▁today	-4334
▁total	-4335
▁unplu	-4336
▁vapor	-4337
ception	-4338
creased	-4339
ections	-4340
eighted	-4341
entific	-4342
faction	-4343
iration	-4344
plexity	-4345
visions	-4346
western	-4347
▁Adjust	-4348
▁Aspect	-4349
▁Gospel	-4350
▁Groups	-4351
▁Jewish	-4352
▁Moving	-4353
▁Relief	-4354
▁Snakes	-4355
▁afraid	-4356
▁always	-4357
▁blades	-4358
▁breeze	-4359
▁called	-4360
▁cannot	-4361
▁curved	-4362
▁faster	-4363
▁figure	-4364
▁formal	-4365
▁helped	-4366
▁island	-4367
▁length	-4368
▁lonely	-4369
▁longer	-4370
▁martha	-4371
▁moving	-4372
▁occurr	-4373
▁opened	-4374
▁photog	-4375
▁proves	-4376
▁rights	-4377
▁scares	-4378
▁settle	-4379
▁source	-4380
▁speaks	-4381
▁sports	-4382
▁status	-4383
▁stimul	-4384
▁sudden	-4385
▁taking	-4386
▁truest	-4387
▁trying	-4388
▁unlike	-4389
▁walked	-4390
▁wheels	-4391
▁worker	-4392
olidates	-4393
ortunate	-4394
▁Absorbs	-4395
▁Austria	-4396
▁Changed	-4397
▁England	-4398
▁Matthew	-4399
▁Maurice	-4400
▁Neurons	-4401
▁Support	-4402
▁Whether	-4403
▁account	-4404
▁analyze	-4405
▁ancient	-4406
▁becomes	-4407
▁capital	-4408
▁causing	-4409
▁closely	-4410
▁company	-4411
▁complex	-4412
▁decides	-4413
▁derived	-4414
▁details	-4415
▁disease	-4416
▁element	-4417
▁exactly	-4418
▁indefin	-4419
▁inquiry	-4420
▁joining	-4421
▁journey	-4422
▁looking	-4423
▁mathema	-4424
▁meeting	-4425
▁minutes	-4426
▁outcome	-4427
▁parties	-4428
▁passing	-4429
▁persona	-4430
▁physics	-4431
▁results	-4432
▁scratch	-4433
▁staying	-4434
▁systems	-4435
▁talking	-4436
▁turning	-4437
▁valence	-4438
▁wrapped	-4439
▁writing	-4440
▁Feelings	-4441
▁Grounded	-4442
▁Mutually	-4443
▁Patterns	-4444
▁Situated	-4445
▁Weighted	-4446
▁activate	-4447
▁alphabet	-4448
▁appropri	-4449
▁argument	-4450
▁attached	-4451
▁canceled	-4452
▁chemical	-4453
▁confused	-4454
▁creating	-4455
▁favorite	-4456
▁granting	-4457
▁judgment	-4458
▁machines	-4459
▁matching	-4460
▁mattered	-4461
▁official	-4462
▁organism	-4463
▁patterns	-4464
▁persists	-4465
▁populous	-4466
▁response	-4467
▁sleeping	-4468
▁smoothly	-4469
▁transmit	-4470
▁utilized	-4471
▁Awareness	-4472
▁Immediate	-4473
▁Requiring	-4474
▁Respected	-4475
▁Sometimes	-4476
▁addiction	-4477
▁agreement	-4478
▁alertness	-4479
▁applicant	-4480
▁authority	-4481
▁awareness	-4482
▁comparing	-4483
▁component	-4484
▁discussed	-4485
▁establish	-4486
▁genuinely	-4487
▁impacting	-4488
▁imperfect	-4489
▁increased	-4490
▁involving	-4491
▁masculine	-4492
▁operation	-4493
▁providing	-4494
▁reasoning	-4495
▁recognize	-4496
▁sometimes	-4497
▁standards	-4498
▁surprises	-4499
▁threatens	-4500
▁tiredness	-4501
▁Absolutely	-4502
▁Complexity	-4503
▁Expressing	-4504
▁admiration	-4505
▁considered	-4506
▁consistent	-4507
▁decorative	-4508
▁electrical	-4509
▁historical	-4510
▁interested	-4511
▁literature	-4512
▁loneliness	-4513
▁perception	-4514
▁protection	-4515
▁repetition	-4516
▁simplicity	-4517
▁substitute	-4518
▁surrounded	-4519
▁Shakespeare	-4520
▁accumulates	-4521
▁connections	-4522
▁constructed	-4523
▁inclination	-4524
▁influencing	-4525
▁malfunction	-4526
▁performance	-4527
▁personality	-4528
▁preparation	-4529
▁traditional	-4530
▁trustworthy	-4531
▁Governmental	-4532
▁consolidates	-4533
▁establishing	-4534
▁fingerprints	-4535
▁intelligence	-4536
▁satisfaction	-4537
▁appropriately	-4538
▁mathematician	-4539
++	-4540
bl	-4541
go	-4542
ix	-4543
ls	-4544
mn	-4545
tz	-4546
up	-4547
agn	-4548
anz	-4549
ars	-4550
asm	-4551
bor	-4552
bra	-4553
bts	-4554
cil	-4555
deo	-4556
eff	-4557
egr	-4558
evs	-4559
fec	-4560
fly	-4561
gne	-4562
hes	-4563
ide	-4564
ien	-4565
iew	-4566
irm	-4567
iza	-4568
key	-4569
lex	-4570
liz	-4571
mos	-4572
nid	-4573
oat	-4574
oly	-4575
owa	-4576
pow	-4577
raq	-4578
sto	-4579
usi	-4580
vir	-4581
xis	-4582
ymn	-4583
▁AI	-4584
▁Br	-4585
▁Er	-4586
▁Pi	-4587
▁Po	-4588
▁Se	-4589
▁Sl	-4590
▁Sw	-4591
▁Sy	-4592
▁Ul	-4593
▁Vi	-4594
▁ci	-4595
▁ef	-4596
aces	-4597
agea	-4598
aged	-4599
alys	-4600
andy	-4601
anks	-4602
apar	-4603
arth	-4604
ased	-4605
ateg	-4606
bble	-4607
borh	-4608
cano	-4609
cise	-4610
crea	-4611
ctor	-4612
each	-4613
ects	-4614
eing	-4615
elle	-4616
emed	-4617
eper	-4618
eral	-4619
ffic	-4620
inea	-4621
irit	-4622
irls	-4623
ised	-4624
ived	-4625
keys	-4626
less	-4627
lier	-4628
migr	-4629
obot	-4630
ocra	-4631
oken	-4632
ores	-4633
oriz	-4634
ossy	-4635
othe	-4636
otti	-4637
ouqu	-4638
ouse	-4639
pass	-4640
pern	-4641
rets	-4642
rian	-4643
sely	-4644
skin	-4645
thur	-4646
tism	-4647
trus	-4648
uled	-4649
ulty	-4650
usks	-4651
uzzy	-4652
valu	-4653
▁Asi	-4654
▁Ass	-4655
▁Aut	-4656
▁Bor	-4657
▁Dec	-4658
▁Del	-4659
▁Dem	-4660
▁Des	-4661
▁Exp	-4662
▁Fam	-4663
▁Gen	-4664
▁Int	-4665
▁Kni	-4666
▁Lab	-4667
▁Lou	-4668
▁Mel	-4669
▁Pag	-4670
▁Poe	-4671
▁Pol	-4672
▁Spr	-4673
▁Sto	-4674
▁Sud	-4675
▁Thr	-4676
▁Tor	-4677
▁Wat	-4678
▁Wor	-4679
▁aim	-4680
▁arc	-4681
▁arm	-4682
▁ben	-4683
▁bov	-4684
▁egg	-4685
▁hoc	-4686
▁hyp	-4687
▁ice	-4688
▁lar	-4689
▁ped	-4690
▁seg	-4691
▁sel	-4692
▁tot	-4693
▁unf	-4694
▁unu	-4695
▁war	-4696
(208)	-4697
achel	-4698
aints	-4699
attle	-4700
aving	-4701
broid	-4702
cents	-4703
denly	-4704
dings	-4705
eater	-4706
edish	-4707
emble	-4708
ender	-4709
enity	-4710
enses	-4711
entor	-4712
erves	-4713
esser	-4714
evsky	-4715
gebra	-4716
gging	-4717
heads	-4718
ician	-4719
ilies	-4720
inces	-4721
inkle	-4722
irror	-4723
isure	-4724
izing	-4725
jects	-4726
lectr	-4727
luent	-4728
ondon	-4729
opher	-4730
orage	-4731
osema	-4732
otten	-4733
phere	-4734
roved	-4735
tense	-4736
thusi	-4737
tract	-4738
uclid	-4739
uling	-4740
urity	-4741
viron	-4742
words	-4743
▁Arch	-4744
▁Cent	-4745
▁Cons	-4746
▁Diff	-4747
▁Dive	-4748
▁Dura	-4749
▁Elif	-4750
▁Foot	-4751
▁Free	-4752
▁Grad	-4753
▁Head	-4754
▁Info	-4755
▁Iraq	-4756
▁Jail	-4757
▁Joel	-4758
▁June	-4759
▁Keep	-4760
▁Last	-4761
▁Lear	-4762
▁Mich	-4763
▁Open	-4764
▁Pack	-4765
▁Pres	-4766
▁Prot	-4767
▁Quiz	-4768
▁Read	-4769
▁Roll	-4770
▁Ryan	-4771
▁Silk	-4772
▁Soph	-4773
▁Tanz	-4774
▁Tens	-4775
▁Than	-4776
▁Vari	-4777
▁able	-4778
▁arts	-4779
▁assi	-4780
▁axis	-4781
▁band	-4782
▁boat	-4783
▁choo	-4784
▁clim	-4785
▁coca	-4786
▁curr	-4787
▁depl	-4788
▁dorm	-4789
▁east	-4790
▁empl	-4791
▁feat	-4792
▁flat	-4793
▁flex	-4794
▁food	-4795
▁held	-4796
▁inan	-4797
▁intr	-4798
▁join	-4799
▁moll	-4800
▁nine	-4801
▁oars	-4802
▁once	-4803
▁prim	-4804
▁rank	-4805
▁rare	-4806
▁repl	-4807
▁road	-4808
▁soft	-4809
▁soil	-4810
▁sums	-4811
▁task	-4812
▁tent	-4813
▁upon	-4814
▁view	-4815
▁weak	-4816
▁wild	-4817
▁wood	-4818
achnid	-4819
alysis	-4820
astics	-4821
attery	-4822
eadset	-4823
egrate	-4824
ellent	-4825
endant	-4826
erence	-4827
erican	-4828
evable	-4829
gnetic	-4830
icycle	-4831
irling	-4832
itable	-4833
itious	-4834
ivotal	-4835
keeper	-4836
lizers	-4837
lution	-4838
minine	-4839
obotic	-4840
ograph	-4841
oppers	-4842
ottish	-4843
ouquet	-4844
ourses	-4845
rative	-4846
suring	-4847
tended	-4848
terfly	-4849
tering	-4850
timate	-4851
undant	-4852
uzzles	-4853
volent	-4854
wrence	-4855
▁Beard	-4856
▁Beast	-4857
▁Bloom	-4858
▁Cheer	-4859
▁Debts	-4860
▁Earth	-4861
▁Evalu	-4862
▁Fault	-4863
▁Flows	-4864
▁Found	-4865
▁Gener	-4866
▁Joker	-4867
▁Kendo	-4868
▁Lanka	-4869
▁Makes	-4870
▁Moist	-4871
▁Monit	-4872
▁Ozone	-4873
▁Parag	-4874
▁Ramps	-4875
▁Round	-4876
▁Sends	-4877
▁Socks	-4878
▁Tired	-4879
▁Tools	-4880
▁Viola	-4881
▁Worth	-4882
▁above	-4883
▁aches	-4884
▁added	-4885
▁alien	-4886
▁allow	-4887
▁award	-4888
▁bands	-4889
▁cargo	-4890
▁cells	-4891
▁clear	-4892
▁close	-4893
▁delay	-4894
▁depth	-4895
▁diagn	-4896
▁effec	-4897
▁eight	-4898
▁enclo	-4899
▁fatal	-4900
▁flour	-4901
▁force	-4902
▁frequ	-4903
▁funds	-4904
▁fuzzy	-4905
▁hered	-4906
▁horiz	-4907
▁house	-4908
▁inhab	-4909
▁jokes	-4910
▁judge	-4911
▁layer	-4912
▁limit	-4913
▁lower	-4914
▁media	-4915
▁metal	-4916
▁minim	-4917
▁misre	-4918
▁neigh	-4919
▁north	-4920
▁outer	-4921
▁quick	-4922
▁ready	-4923
▁relig	-4924
▁reput	-4925
▁rhyth	-4926
▁rigid	-4927
▁seeds	-4928
▁sound	-4929
▁taste	-4930
▁tells	-4931
▁trunk	-4932
▁units	-4933
▁upper	-4934
▁video	-4935
▁vital	-4936
ageable	-4937
ancholy	-4938
angible	-4939
aparral	-4940
arments	-4941
astated	-4942
ational	-4943
berries	-4944
borhood	-4945
cipline	-4946
ellence	-4947
irected	-4948
migrant	-4949
ocratic	-4950
ontally	-4951
ormally	-4952
portant	-4953
porting	-4954
powered	-4955
pressed	-4956
skinned	-4957
versity	-4958
viewing	-4959
▁Absent	-4960
▁Aliens	-4961
▁Anemia	-4962
▁Attach	-4963
▁Backed	-4964
▁Breaks	-4965
▁Commun	-4966
▁Electr	-4967
▁Equals	-4968
▁Euclid	-4969
▁Gained	-4970
▁Gravel	-4971
▁Ground	-4972
▁Highly	-4973
▁Lesser	-4974
▁London	-4975
▁Middle	-4976
▁Necess	-4977
▁Overse	-4978
▁Pagoda	-4979
▁Pieces	-4980
▁Poetry	-4981
▁Really	-4982
▁Resume	-4983
▁Ronald	-4984
▁Rowing	-4985
▁Shaped	-4986
▁Shovel	-4987
▁Showed	-4988
▁Sprays	-4989
▁Stream	-4990
▁Terror	-4991
▁beings	-4992
▁bladed	-4993
▁bovine	-4994
▁bubble	-4995
▁carbon	-4996
▁ceased	-4997
▁charge	-4998
▁citrus	-4999
▁deceit	-5000
▁deeply	-5001
▁defect	-5002
▁depend	-5003
▁dishes	-5004
▁divine	-5005
▁expend	-5006
▁fasten	-5007
▁glossy	-5008
▁height	-5009
▁hockey	-5010
▁immedi	-5011
▁impact	-5012
▁itself	-5013
▁larger	-5014
▁liquid	-5015
▁office	-5016
▁option	-5017
▁orange	-5018
▁others	-5019
▁output	-5020
▁places	-5021
▁record	-5022
▁recrea	-5023
▁refers	-5024
▁regard	-5025
▁saints	-5026
▁serves	-5027
▁shower	-5028
▁soccer	-5029
▁spirit	-5030
▁spoken	-5031
▁sticky	-5032
▁supern	-5033
▁symbol	-5034
▁system	-5035
▁temper	-5036
▁unseen	-5037
amentals	-5038
broidery	-5039
domestic	-5040
efferson	-5041
ementary	-5042
entially	-5043
ercising	-5044
mentally	-5045
olecules	-5046
ourceful	-5047
stoevsky	-5048
thusiasm	-5049
together	-5050
▁Burgers	-5051
▁Clauses	-5052
▁Collect	-5053
▁Compass	-5054
▁Fathers	-5055
▁Melissa	-5056
▁Methods	-5057
▁Notable	-5058
▁Objects	-5059
▁Outfits	-5060
▁Pertain	-5061
▁Posters	-5062
▁Reflect	-5063
▁Robotic	-5064
▁Showing	-5065
▁Sincere	-5066
▁Smashed	-5067
▁Stopped	-5068
▁Titanic	-5069
▁Variant	-5070
▁alarmed	-5071
▁carving	-5072
▁concise	-5073
▁content	-5074
▁courses	-5075
▁devices	-5076
▁dormant	-5077
▁earlier	-5078
▁engaged	-5079
▁faculty	-5080
▁figures	-5081
▁fingers	-5082
▁general	-5083
▁genuine	-5084
▁hauling	-5085
▁hypothe	-5086
▁judging	-5087
▁leisure	-5088
▁mention	-5089
▁modific	-5090
▁opening	-5091
▁origins	-5092
▁outline	-5093
▁popular	-5094
▁reduces	-5095
▁release	-5096
▁removed	-5097
▁serious	-5098
▁setting	-5099
▁several	-5100
▁shorter	-5101
▁slender	-5102
▁sources	-5103
▁stimuli	-5104
▁storage	-5105
▁totally	-5106
▁unusual	-5107
▁volcano	-5108
▁washing	-5109
artphones	-5110
contained	-5111
everaging	-5112
osematism	-5113
ymnastics	-5114
▁American	-5115
▁Braiding	-5116
▁Business	-5117
▁Channels	-5118
▁Consider	-5119
▁Contrary	-5120
▁Directed	-5121
▁Enhanced	-5122
▁Enhances	-5123
▁Families	-5124
▁February	-5125
▁Fountain	-5126
▁Informal	-5127
▁Initiate	-5128
▁Iostream	-5129
▁Listener	-5130
▁Managing	-5131
▁Outlines	-5132
▁Prisoner	-5133
▁Scottish	-5134
▁Smallpox	-5135
▁Suddenly	-5136
▁Tanzania	-5137
▁accepted	-5138
▁affluent	-5139
▁analysis	-5140
▁arachnid	-5141
▁behaving	-5142
▁boundary	-5143
▁building	-5144
▁choosing	-5145
▁critical	-5146
▁diplomat	-5147
▁elements	-5148
▁entities	-5149
▁evaluate	-5150
▁examined	-5151
▁feminine	-5152
▁flexible	-5153
▁football	-5154
▁handling	-5155
▁intended	-5156
▁internet	-5157
▁inventor	-5158
▁magnetic	-5159
▁maturity	-5160
▁modeling	-5161
▁modified	-5162
▁mollusks	-5163
▁morality	-5164
▁noticing	-5165
▁optimism	-5166
▁orbiting	-5167
▁pleasing	-5168
▁pointing	-5169
▁powerful	-5170
▁pretense	-5171
▁produces	-5172
▁property	-5173
▁sections	-5174
▁securely	-5175
▁segments	-5176
▁severely	-5177
▁spinning	-5178
▁sprinkle	-5179
▁whenever	-5180
ertilizers	-5181
ographical	-5182
presenting	-5183
▁Abolished	-5184
▁Adjective	-5185
▁Batteries	-5186
▁Education	-5187
▁Emergence	-5188
▁Evaluates	-5189
▁Headaches	-5190
▁Important	-5191
▁Instantly	-5192
▁Involving	-5193
▁Necessity	-5194
▁Perimeter	-5195
▁Spielberg	-5196
▁ascertain	-5197
▁belonging	-5198
▁certainty	-5199
▁companies	-5200
▁continent	-5201
▁continued	-5202
▁determine	-5203
▁elevation	-5204
▁enjoyment	-5205
▁extremely	-5206
▁favorable	-5207
▁fictional	-5208
▁filtering	-5209
▁immigrant	-5210
▁inanimate	-5211
▁inception	-5212
▁influence	-5213
▁intricate	-5214
▁measuring	-5215
▁practical	-5216
▁precisely	-5217
▁predicted	-5218
▁processes	-5219
▁prominent	-5220
▁recording	-5221
▁reference	-5222
▁regularly	-5223
▁replacing	-5224
▁resolving	-5225
▁sensitive	-5226
▁surprised	-5227
▁wonderful	-5228
▁Activities	-5229
▁Additional	-5230
▁Cautiously	-5231
▁Customized	-5232
▁Discovered	-5233
▁Durability	-5234
▁Generators	-5235
▁Increasing	-5236
▁Overseeing	-5237
▁Paragraphs	-5238
▁Pertaining	-5239
▁Sculptures	-5240
▁assistance	-5241
▁believable	-5242
▁compressed	-5243
▁confidence	-5244
▁controlled	-5245
▁department	-5246
▁devastated	-5247
▁developing	-5248
▁discipline	-5249
▁enthusiasm	-5250
▁estimating	-5251
▁evaluating	-5252
▁frequently	-5253
▁goalkeeper	-5254
▁government	-5255
▁imperative	-5256
▁indefinite	-5257
▁malevolent	-5258
▁melancholy	-5259
▁operations	-5260
▁politician	-5261
▁presenting	-5262
▁quantities	-5263
▁recognized	-5264
▁recreation	-5265
▁reputation	-5266
▁resistance	-5267
▁sufficient	-5268
domesticated	-5269
entification	-5270
▁Accessories	-5271
▁Kilimanjaro	-5272
▁competition	-5273
▁complicated	-5274
▁description	-5275
▁determining	-5276
▁directional	-5277
▁emotionally	-5278
▁expenditure	-5279
▁fashionable	-5280
▁flourishing	-5281
▁immediately	-5282
▁instruction	-5283
▁observation	-5284
▁photographs	-5285
▁temperature	-5286
▁temporarily	-5287
vironmentally	-5288
▁Interviewing	-5289
▁Thanksgiving	-5290
▁achievements	-5291
▁historically	-5292
▁horizontally	-5293
▁hypothetical	-5294
▁neighborhood	-5295
▁participants	-5296
▁particularly	-5297
▁presentation	-5298
▁sequentially	-5299
▁supernatural	-5300
▁transporting	-5301
▁Aesthetically	-5302
▁Sophisticated	-5303
▁comprehensive	-5304
▁international	-5305
▁modifications	-5306
▁Concentrations	-5307
▁Groundbreaking	-5308
▁Macronutrients	-5309
▁characteristic	-5310
▁comprehensions	-5311
▁metaphorically	-5312
▁Accomplishments	-5313
▁misrepresenting	-5314
,.	-5315
AI	-5316
FA	-5317
ck	-5318
ey	-5319
gl	-5320
lv	-5321
me	-5322
ng	-5323
so	-5324
wk	-5325
IFA	-5326
aci	-5327
aks	-5328
alt	-5329
amb	-5330
app	-5331
asc	-5332
car	-5333
ced	-5334
cus	-5335
dim	-5336
dom	-5337
eem	-5338
efa	-5339
ega	-5340
eni	-5341
erf	-5342
esh	-5343
evi	-5344
ewy	-5345
hys	-5346
ids	-5347
jec	-5348
kle	-5349
lob	-5350
lyf	-5351
nia	-5352
nto	-5353
oid	-5354
oin	-5355
olo	-5356
omm	-5357
ook	-5358
ope	-5359
ork	-5360
pap	-5361
ppl	-5362
rel	-5363
sed	-5364
sol	-5365
ues	-5366
ump	-5367
yal	-5368
▁AA	-5369
▁Ag	-5370
▁Cr	-5371
▁Gr	-5372
▁Id	-5373
▁Ir	-5374
▁Kn	-5375
▁Li	-5376
▁Lo	-5377
▁UV	-5378
▁if	-5379
▁ja	-5380
afts	-5381
ails	-5382
aken	-5383
anqu	-5384
anse	-5385
ares	-5386
arry	-5387
atos	-5388
aved	-5389
bust	-5390
cent	-5391
cest	-5392
conn	-5393
cord	-5394
corn	-5395
cure	-5396
dict	-5397
eady	-5398
eage	-5399
nov	-5400
eaps	-5401
eeks	-5402
eign	-5403
eleg	-5404
elim	-5405
emog	-5406
erce	-5407
erem	-5408
esus	-5409
ewor	-5410
fess	-5411
gard	-5412
hoot	-5413
iano	-5414
icks	-5415
icop	-5416
ides	-5417
idpo	-5418
ifor	-5419
ilan	-5420
ilip	-5421
iral	-5422
ires	-5423
irth	-5424
ites	-5425
itia	-5426
ivid	-5427
kely	-5428
kers	-5429
lies	-5430
lock	-5431
make	-5432
nded	-5433
nest	-5434
ockt	-5435
olve	-5436
omic	-5437
opul	-5438
orie	-5439
outs	-5440
oxid	-5441
ping	-5442
pira	-5443
ples	-5444
pret	-5445
pute	-5446
raud	-5447
reme	-5448
ried	-5449
roon	-5450
show	-5451
some	-5452
ston	-5453
sues	-5454
sylv	-5455
thod	-5456
tice	-5457
tigu	-5458
tile	-5459
ubes	-5460
yant	-5461
▁Bar	-5462
▁Bod	-5463
▁Bub	-5464
▁Cap	-5465
▁Cor	-5466
▁Cos	-5467
▁Cry	-5468
▁Cut	-5469
▁Dep	-5470
▁Don	-5471
▁Enj	-5472
▁Ext	-5473
▁Eye	-5474
▁Ham	-5475
▁Hur	-5476
▁Ill	-5477
▁Imp	-5478
▁Leg	-5479
▁Loc	-5480
▁Lot	-5481
▁Mot	-5482
▁Nec	-5483
▁Num	-5484
▁Off	-5485
▁One	-5486
▁Own	-5487
▁Pos	-5488
▁Pot	-5489
▁Pri	-5490
▁Ran	-5491
▁Rec	-5492
▁Red	-5493
▁Rig	-5494
▁Run	-5495
▁Seg	-5496
▁Sri	-5497
▁Sum	-5498
▁Tem	-5499
like	-5500
▁Tow	-5501
▁Tra	-5502
▁USA	-5503
▁Vol	-5504
▁alg	-5505
▁bew	-5506
▁din	-5507
▁dom	-5508
▁ess	-5509
▁fed	-5510
▁jel	-5511
▁lif	-5512
▁low	-5513
▁neg	-5514
▁pay	-5515
▁pic	-5516
▁pun	-5517
▁sea	-5518
▁sph	-5519
▁ten	-5520
▁voy	-5521
▁wax	-5522
▁wet	-5523
▁wil	-5524
about	-5525
amble	-5526
amput	-5527
anned	-5528
anted	-5529
antic	-5530
aring	-5531
asten	-5532
aster	-5533
ategy	-5534
bbles	-5535
bscri	-5536
clear	-5537
cored	-5538
ecast	-5539
eless	-5540
elfth	-5541
elted	-5542
elves	-5543
entle	-5544
ficer	-5545
iform	-5546
ighth	-5547
igned	-5548
inity	-5549
itial	-5550
itled	-5551
itted	-5552
known	-5553
lobin	-5554
nical	-5555
nique	-5556
ordin	-5557
owman	-5558
phalt	-5559
pting	-5560
rains	-5561
rench	-5562
state	-5563
sting	-5564
stood	-5565
storm	-5566
sures	-5567
takes	-5568
tisan	-5569
ulent	-5570
valid	-5571
▁Arti	-5572
▁Bare	-5573
▁Bees	-5574
▁Bows	-5575
▁Care	-5576
▁Cong	-5577
▁Dick	-5578
▁Expl	-5579
▁FIFA	-5580
▁Herd	-5581
▁Jane	-5582
▁Jobs	-5583
▁Josh	-5584
▁Jour	-5585
▁Lack	-5586
▁Lamp	-5587
▁Main	-5588
▁Myth	-5589
▁Nega	-5590
▁Noir	-5591
▁Noun	-5592
▁Oral	-5593
▁Oval	-5594
▁Part	-5595
▁Penn	-5596
▁Perf	-5597
▁Pers	-5598
▁Phys	-5599
gae	-5600
airs	-5601
glas	-5602
eball	-5603
▁Coca	-5604
▁Musk	-5605
▁Prep	-5606
▁Prom	-5607
▁Scal	-5608
▁Sett	-5609
▁Shif	-5610
▁Sign	-5611
▁Sing	-5612
▁Stud	-5613
▁Suns	-5614
▁Tech	-5615
▁Tire	-5616
▁Vine	-5617
▁Ways	-5618
▁Wifi	-5619
▁abbr	-5620
▁also	-5621
▁amus	-5622
▁anti	-5623
▁ants	-5624
▁army	-5625
▁aunt	-5626
▁bend	-5627
▁bibl	-5628
▁bred	-5629
▁caps	-5630
▁chin	-5631
▁clea	-5632
▁cold	-5633
▁dear	-5634
▁deli	-5635
▁desc	-5636
▁disp	-5637
▁each	-5638
▁fail	-5639
▁fasc	-5640
▁fict	-5641
▁film	-5642
▁foil	-5643
▁fort	-5644
▁give	-5645
▁goes	-5646
▁grin	-5647
▁guid	-5648
▁impl	-5649
▁infl	-5650
▁insp	-5651
▁iowa	-5652
▁iter	-5653
▁jazz	-5654
▁josh	-5655
▁kept	-5656
▁king	-5657
▁laid	-5658
▁lots	-5659
▁meat	-5660
▁neat	-5661
▁nega	-5662
▁ours	-5663
▁paid	-5664
▁pays	-5665
▁pict	-5666
▁pier	-5667
▁poem	-5668
▁pond	-5669
▁poor	-5670
▁publ	-5671
▁pump	-5672
▁rays	-5673
▁rech	-5674
▁reve	-5675
▁roam	-5676
▁rope	-5677
▁said	-5678
▁send	-5679
▁sent	-5680
▁shed	-5681
▁sick	-5682
▁site	-5683
▁slam	-5684
▁soap	-5685
▁spot	-5686
▁stum	-5687
▁tear	-5688
▁test	-5689
▁thei	-5690
▁trim	-5691
▁trou	-5692
▁unpl	-5693
▁vess	-5694
▁vill	-5695
▁vote	-5696
ademic	-5697
ardian	-5698
atives	-5699
amboo	-5700
▁Asia	-5701
▁Onto	-5702
▁Sees	-5703
▁Used	-5704
▁book	-5705
▁giza	-5706
▁hawk	-5707
▁hues	-5708
▁rick	-5709
▁solo	-5710
▁uefa	-5711
▁wide	-5712
aciers	-5713
appoin	-5714
carbon	-5715
cluded	-5716
dimens	-5717
earted	-5718
enient	-5719
garded	-5720
icates	-5721
ipment	-5722
isture	-5723
itions	-5724
izable	-5725
lyfish	-5726
orithm	-5727
oughts	-5728
panese	-5729
papers	-5730
pplied	-5731
quired	-5732
quires	-5733
soccer	-5734
solved	-5735
tement	-5736
uction	-5737
ulties	-5738
utants	-5739
veying	-5740
▁Accid	-5741
▁Achie	-5742
▁Beans	-5743
▁Canon	-5744
▁Chief	-5745
▁Comic	-5746
▁Compl	-5747
▁Credi	-5748
▁Crows	-5749
▁Curve	-5750
▁Decor	-5751
▁Devil	-5752
▁Drift	-5753
▁Filip	-5754
▁Frogs	-5755
▁Glove	-5756
▁Gummy	-5757
▁Haiku	-5758
▁Harry	-5759
▁Hopes	-5760
▁Irish	-5761
▁Janet	-5762
▁Jesus	-5763
▁Joins	-5764
▁Knife	-5765
▁Limbs	-5766
▁Liter	-5767
▁Loose	-5768
▁Louis	-5769
▁Lying	-5770
▁Milan	-5771
▁Obser	-5772
▁Packs	-5773
▁Paved	-5774
▁Poles	-5775
▁Popul	-5776
▁Prone	-5777
▁Queue	-5778
▁Rings	-5779
▁Ruled	-5780
▁Sever	-5781
▁Shiny	-5782
▁Shown	-5783
▁Skate	-5784
▁Slams	-5785
▁South	-5786
▁Steal	-5787
▁Stone	-5788
▁Story	-5789
▁Tasty	-5790
▁Treat	-5791
▁Trips	-5792
▁Tying	-5793
▁Ultra	-5794
▁Using	-5795
▁Usual	-5796
▁Villa	-5797
▁admit	-5798
▁algae	-5799
cestor	-5800
▁Ended	-5801
▁along	-5802
▁ankle	-5803
▁apart	-5804
▁areas	-5805
▁argue	-5806
▁armor	-5807
▁asked	-5808
▁asser	-5809
▁aston	-5810
▁avoid	-5811
▁balls	-5812
▁birth	-5813
▁bread	-5814
▁brick	-5815
▁catch	-5816
▁cerem	-5817
▁chair	-5818
▁chewy	-5819
▁coast	-5820
▁cockt	-5821
▁concl	-5822
▁confe	-5823
▁const	-5824
▁corps	-5825
▁craft	-5826
▁crate	-5827
▁cubes	-5828
▁diane	-5829
▁dying	-5830
▁eaten	-5831
▁entry	-5832
▁excav	-5833
▁finan	-5834
▁fixed	-5835
▁focus	-5836
▁frank	-5837
▁fraud	-5838
▁fresh	-5839
▁genes	-5840
▁girls	-5841
▁goats	-5842
▁gover	-5843
▁greet	-5844
▁hated	-5845
▁heaps	-5846
▁hemog	-5847
▁honey	-5848
▁hotel	-5849
▁hurry	-5850
▁innov	-5851
▁legal	-5852
▁liked	-5853
▁lines	-5854
▁lions	-5855
▁lotus	-5856
▁midpo	-5857
▁minor	-5858
▁notes	-5859
▁opera	-5860
▁owned	-5861
▁paper	-5862
▁penal	-5863
▁persp	-5864
▁piano	-5865
▁pione	-5866
▁plank	-5867
▁possi	-5868
▁rakes	-5869
▁ranch	-5870
▁randy	-5871
▁range	-5872
▁rapid	-5873
▁river	-5874
▁rough	-5875
▁royal	-5876
▁sense	-5877
▁setup	-5878
▁sharp	-5879
▁sheep	-5880
▁shoot	-5881
▁shown	-5882
▁shows	-5883
▁sixth	-5884
▁slope	-5885
▁soaks	-5886
▁spend	-5887
▁stems	-5888
▁stick	-5889
▁store	-5890
▁study	-5891
▁suits	-5892
▁takes	-5893
▁teach	-5894
▁teleg	-5895
▁train	-5896
▁tribe	-5897
▁types	-5898
▁ultra	-5899
▁uncle	-5900
▁using	-5901
▁viral	-5902
▁waltz	-5903
▁weary	-5904
▁while	-5905
▁width	-5906
▁world	-5907
▁worry	-5908
▁young	-5909
amental	-5910
angered	-5911
bustion	-5912
cluding	-5913
contigu	-5914
derness	-5915
ecessor	-5916
ermelon	-5917
estrian	-5918
eworthy	-5919
factory	-5920
hooting	-5921
iciency	-5922
ickness	-5923
icopter	-5924
ifornia	-5925
ilation	-5926
ildered	-5927
inating	-5928
ishment	-5929
itative	-5930
jectile	-5931
jecture	-5932
ruction	-5933
stances	-5934
tenance	-5935
venting	-5936
▁Accept	-5937
▁Across	-5938
▁Alaska	-5939
▁August	-5940
▁Awards	-5941
▁Blocks	-5942
▁Border	-5943
▁Brains	-5944
▁Brakes	-5945
▁Bureau	-5946
▁Camera	-5947
▁Carter	-5948
▁Centre	-5949
▁Choose	-5950
▁Chords	-5951
▁Chunks	-5952
▁Clouds	-5953
▁Coming	-5954
▁Contem	-5955
▁Cosmic	-5956
▁Curved	-5957
▁Dancer	-5958
▁Ernest	-5959
▁Fasten	-5960
▁Flying	-5961
▁Fought	-5962
▁Frames	-5963
▁French	-5964
▁Fresco	-5965
▁Grades	-5966
▁Guided	-5967
▁Iodine	-5968
▁Issues	-5969
▁Killed	-5970
▁Labels	-5971
▁Learns	-5972
▁Legisl	-5973
▁Lighth	-5974
▁Manner	-5975
▁Marker	-5976
▁Module	-5977
▁OpenAI	-5978
▁Owning	-5979
▁Potter	-5980
▁Praise	-5981
▁Prince	-5982
▁Profit	-5983
▁Recomm	-5984
▁Relies	-5985
▁Resear	-5986
▁Reveal	-5987
▁Runoff	-5988
▁Scored	-5989
▁Season	-5990
▁Secret	-5991
▁Shells	-5992
▁Sought	-5993
▁Stated	-5994
▁Stolen	-5995
▁Sugary	-5996
▁Summer	-5997
▁Tempor	-5998
▁Territ	-5999
▁Themed	-6000
▁Thirst	-6001
▁Thrust	-6002
▁Toward	-6003
▁Unlock	-6004
▁Volunt	-6005
▁Wander	-6006
▁Wishes	-6007
▁accord	-6008
▁afford	-6009
▁angled	-6010
▁angles	-6011
▁arthur	-6012
▁aspira	-6013
▁august	-6014
▁bamboo	-6015
▁blanks	-6016
▁bought	-6017
▁bricks	-6018
▁bryant	-6019
▁buying	-6020
▁cancer	-6021
▁carter	-6022
▁cattle	-6023
▁center	-6024
▁chased	-6025
▁cheeks	-6026
▁christ	-6027
▁climbs	-6028
▁correl	-6029
▁cosmos	-6030
▁crease	-6031
▁dances	-6032
▁delays	-6033
▁desire	-6034
▁disney	-6035
▁doctor	-6036
▁easier	-6037
▁entire	-6038
▁esteem	-6039
▁evenly	-6040
▁fierce	-6041
▁figura	-6042
▁fixing	-6043
▁flames	-6044
▁freely	-6045
▁gentle	-6046
▁gotten	-6047
▁guinea	-6048
▁happen	-6049
▁initia	-6050
▁introd	-6051
▁labour	-6052
▁lakers	-6053
▁leader	-6054
▁lenses	-6055
▁letter	-6056
▁levels	-6057
▁likely	-6058
▁linens	-6059
▁maroon	-6060
▁melted	-6061
▁member	-6062
▁mentor	-6063
▁metals	-6064
▁method	-6065
▁middle	-6066
▁mirror	-6067
▁narrow	-6068
▁normal	-6069
▁onward	-6070
▁orders	-6071
▁perman	-6072
▁picked	-6073
▁prelim	-6074
▁priced	-6075
▁propel	-6076
▁rachel	-6077
▁raised	-6078
▁recent	-6079
▁reward	-6080
▁rhythm	-6081
▁roping	-6082
▁rounds	-6083
▁screen	-6084
▁secure	-6085
▁shafts	-6086
▁shared	-6087
▁sheets	-6088
▁simile	-6089
▁single	-6090
▁slides	-6091
▁slowly	-6092
▁spiral	-6093
▁spouts	-6094
▁spread	-6095
▁square	-6096
▁stacks	-6097
▁stages	-6098
▁steady	-6099
▁strain	-6100
▁stress	-6101
▁string	-6102
▁swords	-6103
▁thread	-6104
▁tracks	-6105
▁tranqu	-6106
▁unplug	-6107
▁useful	-6108
▁visual	-6109
▁voyage	-6110
▁warner	-6111
▁washed	-6112
▁widely	-6113
▁writes	-6114
eviation	-6115
ivalence	-6116
lections	-6117
oxidants	-6118
storming	-6119
sylvania	-6120
tiveness	-6121
▁Address	-6122
▁Adjusts	-6123
▁Advance	-6124
▁Affects	-6125
▁Alright	-6126
▁Altered	-6127
▁Analyst	-6128
▁Arizona	-6129
▁Artisan	-6130
▁Aspects	-6131
▁Blanket	-6132
▁Castles	-6133
▁Catalog	-6134
▁Chelsea	-6135
▁Chinese	-6136
▁Clinton	-6137
▁Commons	-6138
▁Covered	-6139
▁Critics	-6140
▁Crushed	-6141
▁Crypsis	-6142
▁Dancers	-6143
▁Delight	-6144
▁Devices	-6145
▁Differs	-6146
▁Discuss	-6147
▁Display	-6148
▁Drought	-6149
▁Expense	-6150
▁Extreme	-6151
▁Firefox	-6152
▁Friends	-6153
▁Glasses	-6154
▁Grandma	-6155
▁Heating	-6156
▁Hobbies	-6157
▁Injured	-6158
▁Islands	-6159
▁Keeping	-6160
▁Knocked	-6161
▁Laundry	-6162
▁Layered	-6163
▁Lending	-6164
▁Loading	-6165
▁Located	-6166
▁Migrate	-6167
▁Monitor	-6168
▁Mustard	-6169
▁Optical	-6170
▁Partici	-6171
▁Pattern	-6172
▁Peaches	-6173
▁Penalty	-6174
▁Periods	-6175
▁Picking	-6176
▁Pickles	-6177
▁Pirates	-6178
▁Ranking	-6179
▁Rapidly	-6180
▁Rebecca	-6181
▁Reduced	-6182
▁Resorts	-6183
▁Rounded	-6184
▁Seconds	-6185
▁Segment	-6186
▁Sending	-6187
▁Sharing	-6188
▁Snowman	-6189
▁Streams	-6190
▁Tequila	-6191
▁Trained	-6192
▁Tropism	-6193
▁Ukraine	-6194
▁Working	-6195
▁accents	-6196
▁affairs	-6197
▁aimless	-6198
▁airline	-6199
▁algebra	-6200
▁amusing	-6201
▁applies	-6202
▁asphalt	-6203
▁battery	-6204
▁beneath	-6205
▁bicycle	-6206
▁blended	-6207
▁bouquet	-6208
▁bubbles	-6209
▁calming	-6210
▁calorie	-6211
▁capable	-6212
▁careful	-6213
▁carried	-6214
▁centers	-6215
▁checked	-6216
▁classes	-6217
▁clients	-6218
▁compact	-6219
▁confirm	-6220
▁council	-6221
▁cousins	-6222
▁creates	-6223
▁culture	-6224
▁curated	-6225
▁current	-6226
▁demands	-6227
▁desired	-6228
▁desires	-6229
▁disconn	-6230
▁dispute	-6231
▁divided	-6232
▁douglas	-6233
▁durable	-6234
▁editing	-6235
▁effects	-6236
▁elected	-6237
▁evening	-6238
▁expanse	-6239
▁factory	-6240
▁factual	-6241
▁farther	-6242
▁feature	-6243
▁federal	-6244
▁finding	-6245
▁firstly	-6246
▁flowers	-6247
▁foreign	-6248
▁fortune	-6249
▁habitat	-6250
▁harmony	-6251
▁headset	-6252
▁hearing	-6253
▁hearted	-6254
▁individ	-6255
▁initial	-6256
▁insects	-6257
▁intense	-6258
▁invalid	-6259
▁keeping	-6260
▁learned	-6261
▁leather	-6262
▁lifting	-6263
▁lightly	-6264
▁liquids	-6265
▁listing	-6266
▁manners	-6267
▁marbles	-6268
▁marking	-6269
▁martial	-6270
▁matches	-6271
▁medical	-6272
▁members	-6273
▁methods	-6274
▁mileage	-6275
▁minimal	-6276
▁monkeys	-6277
▁musical	-6278
▁mustard	-6279
▁needing	-6280
▁offense	-6281
▁offered	-6282
▁officer	-6283
▁oneself	-6284
▁options	-6285
▁parents	-6286
▁partial	-6287
▁partner	-6288
▁pivotal	-6289
▁planted	-6290
▁plaster	-6291
▁playful	-6292
▁popcorn	-6293
▁precise	-6294
▁primary	-6295
▁product	-6296
▁profess	-6297
▁pumpkin	-6298
▁putting	-6299
▁puzzles	-6300
▁reading	-6301
▁reality	-6302
▁relates	-6303
▁removal	-6304
▁resolve	-6305
▁ronaldo	-6306
▁rounded	-6307
▁secrets	-6308
▁secured	-6309
▁species	-6310
▁squares	-6311
▁strands	-6312
▁stratos	-6313
▁subscri	-6314
▁sweater	-6315
▁swedish	-6316
▁tighter	-6317
▁tightly	-6318
▁traffic	-6319
▁travels	-6320
▁twelfth	-6321
▁unclear	-6322
▁uniform	-6323
▁unknown	-6324
▁verdict	-6325
▁villain	-6326
▁violent	-6327
▁waiting	-6328
▁western	-6329
▁winning	-6330
appointed	-6331
onstrates	-6332
ordinates	-6333
roundings	-6334
something	-6335
▁Allowing	-6336
▁Arranged	-6337
▁Attitude	-6338
▁Autotomy	-6339
▁Bleeding	-6340
▁Capacity	-6341
▁Capoeira	-6342
▁Clippers	-6343
▁Clusters	-6344
▁Congress	-6345
▁Customer	-6346
▁Defining	-6347
▁Designed	-6348
▁Displays	-6349
▁Domestic	-6350
▁Donation	-6351
▁Dwelling	-6352
▁Estimate	-6353
▁Filipino	-6354
▁Flagship	-6355
▁Garments	-6356
▁Hamilton	-6357
▁Illusion	-6358
▁Improved	-6359
▁Included	-6360
▁Infinity	-6361
▁Injuries	-6362
▁Integral	-6363
▁Investig	-6364
▁Japanese	-6365
▁Manufact	-6366
▁Michigan	-6367
▁Necklace	-6368
▁Opposing	-6369
▁Persuade	-6370
▁Physical	-6371
▁Populism	-6372
▁Positive	-6373
▁Readable	-6374
▁Regarded	-6375
▁Repeated	-6376
▁Requires	-6377
▁Rigorous	-6378
▁Scalable	-6379
▁Scenario	-6380
▁Severity	-6381
▁Shifting	-6382
▁Spelling	-6383
▁Stealing	-6384
▁Stronger	-6385
▁Students	-6386
▁Sunshine	-6387
▁Supplied	-6388
▁Swinging	-6389
▁Synonyms	-6390
▁Tensions	-6391
▁Thorough	-6392
▁Thoughts	-6393
▁Treating	-6394
▁Watching	-6395
▁abundant	-6396
▁academic	-6397
▁accident	-6398
▁accurate	-6399
▁acquired	-6400
▁ancestor	-6401
▁approval	-6402
▁assemble	-6403
▁assigned	-6404
▁baseball	-6405
▁becoming	-6406
▁believed	-6407
▁biblical	-6408
▁blending	-6409
▁bursting	-6410
▁catching	-6411
▁ceremony	-6412
▁charging	-6413
▁cheerful	-6414
▁cleaning	-6415
▁climbing	-6416
▁coloring	-6417
▁composed	-6418
▁confined	-6419
▁contract	-6420
▁contrary	-6421
▁cucumber	-6422
▁delicate	-6423
▁deployed	-6424
▁dividing	-6425
▁droughts	-6426
▁duration	-6427
▁election	-6428
▁enclosed	-6429
▁entitled	-6430
▁equality	-6431
▁examines	-6432
▁examples	-6433
▁explores	-6434
▁fastened	-6435
▁fastener	-6436
▁findings	-6437
▁finishes	-6438
▁forecast	-6439
▁glaciers	-6440
▁grinding	-6441
▁guardian	-6442
▁guidance	-6443
▁heredity	-6444
▁humorous	-6445
▁interval	-6446
▁lawrence	-6447
▁listened	-6448
▁meanings	-6449
▁michelle	-6450
▁midpoint	-6451
▁modifies	-6452
▁moisture	-6453
▁negative	-6454
▁normally	-6455
▁observer	-6456
▁offering	-6457
▁operates	-6458
▁ordering	-6459
▁ordinary	-6460
▁painting	-6461
▁passages	-6462
▁practice	-6463
▁produced	-6464
▁radiance	-6465
▁recalled	-6466
▁received	-6467
▁recharge	-6468
▁refining	-6469
▁reflects	-6470
▁removing	-6471
▁repeated	-6472
▁restrain	-6473
▁retained	-6474
▁revealed	-6475
▁romantic	-6476
▁rotating	-6477
▁scramble	-6478
▁sentence	-6479
▁serenity	-6480
▁shedding	-6481
▁shoppers	-6482
▁standing	-6483
▁stopping	-6484
▁stranger	-6485
▁strategy	-6486
▁stumbles	-6487
▁subjects	-6488
▁suitable	-6489
▁symbolic	-6490
▁tangible	-6491
▁temporal	-6492
▁tendency	-6493
▁thoughts	-6494
▁troubles	-6495
▁twirling	-6496
▁ultimate	-6497
▁washable	-6498
▁websites	-6499
▁wrapping	-6500
amputation	-6501
contiguous	-6502
▁Accidents	-6503
▁Architect	-6504
▁Arranging	-6505
▁Asparagus	-6506
▁Assessing	-6507
▁Concealed	-6508
▁Consuming	-6509
▁Contained	-6510
▁Depending	-6511
▁Disorders	-6512
▁Educating	-6513
▁Efficient	-6514
▁Electrons	-6515
▁Emergency	-6516
▁Estimated	-6517
▁Estimates	-6518
▁Explosion	-6519
▁Fasteners	-6520
▁Increases	-6521
▁Interpret	-6522
▁Literally	-6523
▁Metabolic	-6524
▁Motivated	-6525
▁Mutualism	-6526
▁Packaging	-6527
▁Prompting	-6528
▁Providing	-6529
▁Recursion	-6530
▁Restoring	-6531
▁Sculpture	-6532
▁Singapore	-6533
▁Southeast	-6534
▁Streaming	-6535
▁Supported	-6536
▁Tasteless	-6537
▁Territory	-6538
▁Thousands	-6539
▁Voldemort	-6540
▁acquiring	-6541
▁algorithm	-6542
▁amusement	-6543
▁apartment	-6544
▁appealing	-6545
▁behaviour	-6546
▁borrowing	-6547
▁butterfly	-6548
▁certainly	-6549
▁chaparral	-6550
▁cocktails	-6551
▁confining	-6552
▁conflicts	-6553
▁container	-6554
▁conveying	-6555
▁correctly	-6556
▁cucumbers	-6557
▁deceptive	-6558
▁defendant	-6559
▁defending	-6560
▁delicious	-6561
▁descended	-6562
▁designers	-6563
▁detailing	-6564
▁detection	-6565
▁detective	-6566
▁developed	-6567
▁diagnosed	-6568
▁dissolved	-6569
▁distilled	-6570
▁diversity	-6571
▁dominated	-6572
▁elections	-6573
▁essential	-6574
▁expensive	-6575
▁extending	-6576
▁factually	-6577
▁following	-6578
▁fortunate	-6579
▁governing	-6580
▁indicated	-6581
▁integrate	-6582
▁inventing	-6583
▁iterative	-6584
▁jefferson	-6585
▁jellyfish	-6586
▁longitude	-6587
▁molecules	-6588
▁narrative	-6589
▁occurring	-6590
▁operating	-6591
▁ourselves	-6592
▁particles	-6593
▁penalties	-6594
▁political	-6595
▁pollution	-6596
▁positions	-6597
▁preserves	-6598
▁provinces	-6599
▁published	-6600
▁qualities	-6601
▁radiation	-6602
▁receiving	-6603
▁relatable	-6604
▁relations	-6605
▁religious	-6606
▁repellent	-6607
▁residence	-6608
▁resources	-6609
▁substance	-6610
▁teachings	-6611
▁technique	-6612
▁telegraph	-6613
▁temporary	-6614
▁thickness	-6615
▁unplanned	-6616
▁variation	-6617
▁vehicular	-6618
▁voluntary	-6619
▁withstand	-6620
dimensional	-6621
▁Acceptable	-6622
▁California	-6623
▁Combustion	-6624
▁Commentary	-6625
▁Describing	-6626
▁Dictionary	-6627
▁Frameworks	-6628
▁Graduation	-6629
▁Inaccurate	-6630
▁Kilometres	-6631
▁Medication	-6632
▁Negatively	-6633
▁Pittsburgh	-6634
▁Preventing	-6635
▁Reorganize	-6636
▁Restricted	-6637
▁Seasonings	-6638
▁Settlement	-6639
▁Songwriter	-6640
▁Subsequent	-6641
▁Supporting	-6642
▁Watermelon	-6643
▁accordance	-6644
▁adjectives	-6645
▁altogether	-6646
▁animations	-6647
▁assertions	-6648
▁automation	-6649
▁bewildered	-6650
▁completing	-6651
▁confection	-6652
▁conjecture	-6653
▁consisting	-6654
▁containers	-6655
▁containing	-6656
▁convenient	-6657
▁critically	-6658
▁deficiency	-6659
▁democratic	-6660
▁depression	-6661
▁determined	-6662
▁dostoevsky	-6663
▁embroidery	-6664
▁employment	-6665
▁enclosures	-6666
▁encounters	-6667
▁endangered	-6668
▁excavation	-6669
▁excellence	-6670
▁excitement	-6671
▁exercising	-6672
▁explaining	-6673
▁expression	-6674
▁fascinated	-6675
▁fictitious	-6676
▁fraudulent	-6677
▁gymnastics	-6678
▁harvesting	-6679
▁helicopter	-6680
▁hemoglobin	-6681
▁impression	-6682
▁indicating	-6683
▁inflatable	-6684
▁inhabiting	-6685
▁innovative	-6686
▁inspection	-6687
▁inventions	-6688
▁leveraging	-6689
▁manageable	-6690
▁negatively	-6691
▁newspapers	-6692
▁noteworthy	-6693
▁occurrence	-6694
▁optimizing	-6695
▁participle	-6696
▁pedestrian	-6697
▁perceiving	-6698
▁perfecting	-6699
▁pioneering	-6700
▁pollutants	-6701
▁projectile	-6702
▁provisions	-6703
▁punishment	-6704
▁requesting	-6705
▁roundabout	-6706
▁seasonally	-6707
▁selections	-6708
▁streamline	-6709
▁thoroughly	-6710
▁understood	-6711
▁undertakes	-6712
▁unplugging	-6713
▁vertically	-6714
▁wilderness	-6715
▁Adjustments	-6716
▁Advancement	-6717
▁Alternative	-6718
▁Categorical	-6719
▁Conjunction	-6720
▁Contestants	-6721
▁Contraction	-6722
▁Credibility	-6723
▁Demonstrate	-6724
▁Genetically	-6725
▁Incorporate	-6726
▁Institution	-6727
▁Maintaining	-6728
▁Marketplace	-6729
▁Prestigious	-6730
▁Recommended	-6731
▁Researching	-6732
▁Significant	-6733
▁aposematism	-6734
▁aspirations	-6735
▁association	-6736
▁astonishing	-6737
▁blueberries	-6738
▁christopher	-6739
▁compilation	-6740
▁descriptive	-6741
▁destitution	-6742
▁destruction	-6743
▁discussions	-6744
▁dispatching	-6745
▁displeasure	-6746
▁electricity	-6747
▁equivalence	-6748
▁fertilizers	-6749
▁financially	-6750
▁initiatives	-6751
▁maintenance	-6752
▁nationality	-6753
▁permanently	-6754
▁pollinating	-6755
▁positioning	-6756
▁predecessor	-6757
▁preliminary	-6758
▁progressive	-6759
▁questioning	-6760
▁recognition	-6761
▁resourceful	-6762
▁showerheads	-6763
▁smartphones	-6764
▁territories	-6765
▁tranquility	-6766
▁transmitted	-6767
▁unfortunate	-6768
▁Christianity	-6769
▁Communicates	-6770
▁Corporations	-6771
▁Discontinued	-6772
▁Lighthearted	-6773
▁Partnerships	-6774
▁Pennsylvania	-6775
▁Segmentation	-6776
▁Unstructured	-6777
▁Velociraptor	-6778
▁abbreviation	-6779
▁accumulation	-6780
▁antioxidants	-6781
▁biographical	-6782
▁capabilities	-6783
▁constitution	-6784
▁constructing	-6785
▁correlations	-6786
▁demonstrates	-6787
▁disappointed	-6788
▁figuratively	-6789
▁fundamentals	-6790
▁instructions	-6791
▁perspectives	-6792
▁preparations	-6793
▁professional	-6794
▁recognizable	-6795
▁recreational	-6796
▁satisfactory	-6797
▁southwestern	-6798
▁stratosphere	-6799
▁subordinates	-6800
▁subscription	-6801
▁surroundings	-6802
▁transmitting	-6803
▁Contemplating	-6804
▁Investigating	-6805
▁Refrigeration	-6806
▁authoritative	-6807
▁authorization	-6808
▁brainstorming	-6809
▁communicating	-6810
▁complementary	-6811
▁effectiveness	-6812
▁possibilities	-6813
▁Accomplishment	-6814
▁Alphabetically	-6815
▁conversational	-6816
▁identification	-6817
▁environmentally	-6818
▁representatives	-6819
▁troubleshooting	-6820
,"	-6821
bo	-6822
bu	-6823
dr	-6824
fl	-6825
he	-6826
ib	-6827
kf	-6828
rt	-6829
ua	-6830
ug	-6831
ux	-6832
yd	-6833
za	-6834
▁"	-6835
acy	-6836
ank	-6837
arf	-6838
ase	-6839
atu	-6840
aur	-6841
ave	-6842
bed	-6843
bic	-6844
cas	-6845
cip	-6846
coh	-6847
col	-6848
cou	-6849
cra	-6850
ebr	-6851
eds	-6852
eed	-6853
eft	-6854
emb	-6855
erv	-6856
eus	-6857
eve	-6858
for	-6859
gar	-6860
ged	-6861
get	-6862
gue	-6863
ial	-6864
icy	-6865
ina	-6866
isk	-6867
ixt	-6868
mly	-6869
mpa	-6870
nco	-6871
nol	-6872
oil	-6873
oms	-6874
oon	-6875
oor	-6876
oub	-6877
reg	-6878
rew	-6879
roc	-6880
ses	-6881
the	-6882
uck	-6883
umn	-6884
unc	-6885
whe	-6886
xim	-6887
yew	-6888
yro	-6889
▁Ap	-6890
▁Bi	-6891
▁Bu	-6892
▁Cu	-6893
▁Dr	-6894
▁Eu	-6895
▁Or	-6896
▁Ou	-6897
▁Tw	-6898
▁Ve	-6899
dy	-6900
ind	-6901
ogy	-6902
pit	-6903
rup	-6904
ugg	-6905
▁We	-6906
▁cy	-6907
▁ge	-6908
▁gi	-6909
▁ho	-6910
▁il	-6911
▁ir	-6912
▁ju	-6913
▁na	-6914
▁od	-6915
▁vo	-6916
abol	-6917
abor	-6918
ache	-6919
alie	-6920
ases	-6921
asic	-6922
asis	-6923
ason	-6924
atus	-6925
beli	-6926
bery	-6927
bohy	-6928
buil	-6929
cast	-6930
cend	-6931
chan	-6932
cial	-6933
ders	-6934
eace	-6935
eamy	-6936
eden	-6937
eeth	-6938
eply	-6939
eres	-6940
etch	-6941
eted	-6942
gone	-6943
icro	-6944
ifts	-6945
igns	-6946
ilar	-6947
ills	-6948
inue	-6949
itch	-6950
ivis	-6951
kill	-6952
lesh	-6953
mino	-6954
nsel	-6955
ockb	-6956
ocky	-6957
odic	-6958
omeo	-6959
omob	-6960
oter	-6961
oute	-6962
oyee	-6963
pire	-6964
reen	-6965
rich	-6966
roke	-6967
room	-6968
rope	-6969
rous	-6970
rowd	-6971
serv	-6972
sive	-6973
sses	-6974
sued	-6975
sura	-6976
tend	-6977
tick	-6978
tise	-6979
turn	-6980
uals	-6981
uler	-6982
ulls	-6983
umes	-6984
umid	-6985
unts	-6986
urif	-6987
vels	-6988
vous	-6989
wear	-6990
wise	-6991
ydro	-6992
yond	-6993
▁Aff	-6994
▁Air	-6995
▁Amb	-6996
▁Ara	-6997
▁Beg	-6998
▁Bry	-6999
aws	-7000
eins	-7001
havi	-7002
ield	-7003
▁Cir	-7004
▁Cra	-7005
▁Cru	-7006
▁Det	-7007
▁Dig	-7008
▁Exc	-7009
▁Fre	-7010
▁Ing	-7011
▁Ins	-7012
▁Mid	-7013
▁Mis	-7014
▁Mod	-7015
▁Mor	-7016
▁Put	-7017
▁Rem	-7018
▁Rep	-7019
▁Rop	-7020
▁Sad	-7021
▁Sch	-7022
▁Ste	-7023
▁Suc	-7024
▁Tic	-7025
▁Ver	-7026
▁Vis	-7027
▁Wal	-7028
▁War	-7029
▁Wet	-7030
▁Why	-7031
▁aqu	-7032
▁ask	-7033
▁awa	-7034
▁bad	-7035
▁bag	-7036
▁bot	-7037
▁buy	-7038
▁cel	-7039
▁clo	-7040
▁cou	-7041
▁cro	-7042
▁ens	-7043
▁fea	-7044
▁fel	-7045
▁gun	-7046
▁hay	-7047
▁her	-7048
▁hid	-7049
▁his	-7050
▁hit	-7051
▁key	-7052
▁led	-7053
▁mix	-7054
▁nor	-7055
▁obj	-7056
▁orn	-7057
▁pat	-7058
▁piz	-7059
▁pot	-7060
▁ren	-7061
▁rub	-7062
▁sam	-7063
▁sat	-7064
▁sci	-7065
▁tox	-7066
▁unw	-7067
▁vac	-7068
▁vul	-7069
▁win	-7070
acles	-7071
agree	-7072
ainst	-7073
aised	-7074
aling	-7075
andra	-7076
anges	-7077
apted	-7078
arton	-7079
ashes	-7080
asted	-7081
astle	-7082
being	-7083
brant	-7084
cilit	-7085
cipal	-7086
circl	-7087
cover	-7088
ctang	-7089
domen	-7090
eamed	-7091
eaned	-7092
eatly	-7093
eatre	-7094
ecked	-7095
elled	-7096
ellow	-7097
ences	-7098
ensed	-7099
preh	-7100
erent	-7101
erior	-7102
erity	-7103
etely	-7104
ggest	-7105
iates	-7106
icals	-7107
ierce	-7108
ified	-7109
iment	-7110
ising	-7111
istic	-7112
itary	-7113
itely	-7114
ither	-7115
lumin	-7116
ncopa	-7117
nects	-7118
ocate	-7119
ollow	-7120
onoun	-7121
ormed	-7122
orted	-7123
ousin	-7124
owned	-7125
panse	-7126
pects	-7127
phone	-7128
rally	-7129
romas	-7130
rowed	-7131
sists	-7132
teger	-7133
tered	-7134
thern	-7135
tices	-7136
udent	-7137
uried	-7138
usage	-7139
uxuri	-7140
venly	-7141
veway	-7142
vious	-7143
water	-7144
worms	-7145
zzles	-7146
▁Adds	-7147
▁Amph	-7148
▁Ants	-7149
▁Army	-7150
▁Barn	-7151
▁Bent	-7152
▁Body	-7153
▁Bred	-7154
▁Calm	-7155
▁Came	-7156
▁Canc	-7157
▁Caps	-7158
▁Caus	-7159
▁Char	-7160
▁City	-7161
▁Cord	-7162
▁Coun	-7163
▁Dece	-7164
▁Depl	-7165
▁Deri	-7166
▁Dire	-7167
▁Dist	-7168
▁Done	-7169
▁Emmy	-7170
▁Exci	-7171
▁Eyew	-7172
▁Fict	-7173
▁Firm	-7174
▁Fold	-7175
▁Fran	-7176
▁Fund	-7177
▁Hand	-7178
▁Hear	-7179
▁Hurt	-7180
▁Item	-7181
▁Iter	-7182
▁Jaws	-7183
▁Jazz	-7184
▁Kept	-7185
▁Laid	-7186
▁Land	-7187
▁Lane	-7188
▁Mach	-7189
▁Mass	-7190
▁Moon	-7191
▁Pete	-7192
▁Pier	-7193
▁Pile	-7194
▁Pond	-7195
▁Prin	-7196
▁Retr	-7197
▁Rick	-7198
▁Ring	-7199
fix	-7200
▁AAA	-7201
▁Cup	-7202
▁Fix	-7203
blems	-7204
osaur	-7205
▁Decl	-7206
▁Giza	-7207
▁Iowa	-7208
▁Life	-7209
▁Ruby	-7210
▁Seed	-7211
▁Show	-7212
▁Sold	-7213
▁Soon	-7214
▁Symb	-7215
▁Tabl	-7216
▁Tags	-7217
▁Tend	-7218
▁Thei	-7219
▁Thin	-7220
▁Tree	-7221
▁Trim	-7222
▁Wall	-7223
▁York	-7224
▁atom	-7225
▁bell	-7226
▁bran	-7227
▁brea	-7228
▁buns	-7229
▁busy	-7230
▁buys	-7231
▁dirt	-7232
▁draw	-7233
▁econ	-7234
▁emph	-7235
▁fair	-7236
▁farm	-7237
▁find	-7238
▁five	-7239
▁garm	-7240
▁gaze	-7241
▁goat	-7242
▁imag	-7243
▁knot	-7244
▁lack	-7245
▁larg	-7246
▁lion	-7247
▁loan	-7248
▁lust	-7249
▁mess	-7250
▁milk	-7251
▁myst	-7252
▁natu	-7253
▁nucl	-7254
▁pale	-7255
▁pork	-7256
▁port	-7257
▁pung	-7258
▁rate	-7259
▁reas	-7260
▁rich	-7261
▁rule	-7262
▁sinc	-7263
▁star	-7264
▁stem	-7265
▁suff	-7266
▁tops	-7267
▁unex	-7268
▁untr	-7269
▁viol	-7270
▁wire	-7271
▁wrap	-7272
aceful	-7273
ageway	-7274
ansmit	-7275
arging	-7276
artled	-7277
atomic	-7278
bedded	-7279
broken	-7280
courag	-7281
eduled	-7282
egates	-7283
ellite	-7284
ercial	-7285
estive	-7286
fficer	-7287
flower	-7288
hicles	-7289
ibious	-7290
inging	-7291
irstly	-7292
italia	-7293
itants	-7294
minist	-7295
nesses	-7296
ometry	-7297
oyable	-7298
points	-7299
▁dug	-7300
craft	-7301
kfast	-7302
uggle	-7303
ximum	-7304
yroid	-7305
▁Foil	-7306
▁Lots	-7307
▁Need	-7308
▁groc	-7309
▁kind	-7310
▁left	-7311
▁mixt	-7312
▁risk	-7313
▁tidy	-7314
bohydr	-7315
casion	-7316
curacy	-7317
ennial	-7318
mpathe	-7319
nology	-7320
oubled	-7321
recise	-7322
shaped	-7323
stract	-7324
thered	-7325
tified	-7326
ulsive	-7327
uncles	-7328
usions	-7329
verned	-7330
vising	-7331
▁Amino	-7332
▁Apple	-7333
▁Argue	-7334
▁Asian	-7335
▁Bacon	-7336
▁Basic	-7337
▁Black	-7338
▁Blues	-7339
▁Brian	-7340
▁Brief	-7341
▁Broke	-7342
▁Bumps	-7343
▁Burns	-7344
▁Buyer	-7345
▁Chair	-7346
▁China	-7347
▁Coast	-7348
▁Coats	-7349
▁Comma	-7350
▁Cucum	-7351
▁Cured	-7352
▁Divis	-7353
▁Doing	-7354
▁Dying	-7355
▁Enter	-7356
▁Error	-7357
▁Exact	-7358
▁Fatal	-7359
▁Favor	-7360
▁Fetch	-7361
▁Fines	-7362
▁Forth	-7363
▁Genre	-7364
▁Girls	-7365
▁Great	-7366
▁Guess	-7367
▁Hours	-7368
▁Hurry	-7369
▁Idaho	-7370
▁Influ	-7371
▁Italy	-7372
▁Lands	-7373
▁Large	-7374
▁Layer	-7375
▁Lions	-7376
▁Liver	-7377
▁Locks	-7378
▁Lotus	-7379
▁Lucky	-7380
▁Marsh	-7381
▁Mason	-7382
▁Metal	-7383
▁Mills	-7384
▁Moved	-7385
▁North	-7386
▁Obama	-7387
▁Optim	-7388
▁Outer	-7389
▁Peace	-7390
▁Piles	-7391
▁Plank	-7392
▁Prize	-7393
▁Queen	-7394
▁Rakes	-7395
▁Rinse	-7396
▁Rocky	-7397
▁Romeo	-7398
▁Ruler	-7399
▁Bulls	-7400
▁Humid	-7401
▁Scarf	-7402
▁Scout	-7403
▁Screw	-7404
▁Sedan	-7405
▁Sheer	-7406
▁Shine	-7407
▁Shows	-7408
▁Snack	-7409
▁Stick	-7410
▁Storm	-7411
▁Taken	-7412
▁Takes	-7413
▁Train	-7414
▁Under	-7415
▁Unplu	-7416
▁Upper	-7417
▁Vodka	-7418
▁Voter	-7419
▁Waltz	-7420
▁Water	-7421
▁Works	-7422
▁adver	-7423
▁agave	-7424
▁aimed	-7425
▁alcoh	-7426
▁appar	-7427
▁armed	-7428
▁atmos	-7429
▁aunts	-7430
▁begin	-7431
▁belly	-7432
▁bends	-7433
▁benef	-7434
▁bonds	-7435
▁build	-7436
▁calls	-7437
▁candy	-7438
▁categ	-7439
▁chain	-7440
▁chase	-7441
▁chunk	-7442
▁class	-7443
▁climb	-7444
▁crime	-7445
▁crowd	-7446
▁cured	-7447
▁dance	-7448
▁dense	-7449
▁ditch	-7450
▁doses	-7451
▁early	-7452
▁faith	-7453
▁fight	-7454
▁flesh	-7455
▁flies	-7456
▁floor	-7457
▁frame	-7458
▁gifts	-7459
▁gives	-7460
▁going	-7461
▁green	-7462
▁heart	-7463
▁helps	-7464
▁hydro	-7465
▁ideas	-7466
▁inner	-7467
▁irreg	-7468
▁juicy	-7469
▁knock	-7470
▁least	-7471
▁lived	-7472
▁meals	-7473
▁medic	-7474
▁micro	-7475
▁mixes	-7476
▁mouth	-7477
▁naked	-7478
▁odors	-7479
▁pests	-7480
▁pizza	-7481
▁plans	-7482
▁plays	-7483
▁proce	-7484
▁purif	-7485
▁reach	-7486
▁reeds	-7487
▁refle	-7488
▁resid	-7489
▁rhyme	-7490
▁rooms	-7491
▁rotor	-7492
▁route	-7493
▁rules	-7494
▁scent	-7495
▁sheet	-7496
▁shelt	-7497
▁signs	-7498
▁slang	-7499
▁steps	-7500
▁stock	-7501
▁syrup	-7502
▁table	-7503
▁taken	-7504
▁tasks	-7505
▁teams	-7506
▁teeth	-7507
▁theft	-7508
▁touch	-7509
▁tower	-7510
▁voice	-7511
▁watch	-7512
▁wheel	-7513
▁woody	-7514
▁yield	-7515
abolism	-7516
aborate	-7517
angling	-7518
believe	-7519
colored	-7520
ebrated	-7521
embling	-7522
engthen	-7523
entions	-7524
equence	-7525
forward	-7526
ketball	-7527
lective	-7528
lifting	-7529
olecule	-7530
osition	-7531
presses	-7532
servant	-7533
surable	-7534
viously	-7535
wheeled	-7536
▁Afford	-7537
▁Agenda	-7538
▁Alfred	-7539
▁Arabic	-7540
▁Arthur	-7541
▁Assign	-7542
▁Behavi	-7543
▁Blanks	-7544
▁Bodies	-7545
▁Bryant	-7546
▁Bubble	-7547
▁Button	-7548
▁Called	-7549
▁Carbon	-7550
▁Carton	-7551
▁Center	-7552
▁Chased	-7553
▁Claims	-7554
▁Climbs	-7555
▁Cousin	-7556
▁Crafts	-7557
▁Deeply	-7558
▁Delays	-7559
▁Digits	-7560
▁Disney	-7561
▁Doctor	-7562
▁Dreams	-7563
▁Drives	-7564
▁Emerge	-7565
▁Encoun	-7566
▁Enjoys	-7567
▁Enough	-7568
▁Europe	-7569
▁Evenly	-7570
▁Experi	-7571
▁Father	-7572
▁Fierce	-7573
▁Fixing	-7574
▁Follow	-7575
▁Gallon	-7576
▁Goalie	-7577
▁Gotten	-7578
▁Grants	-7579
▁Guests	-7580
▁Guinea	-7581
▁Hannah	-7582
▁Hiding	-7583
▁Higher	-7584
▁Hustle	-7585
▁Injury	-7586
▁Inside	-7587
▁Island	-7588
▁Joshua	-7589
▁Kidney	-7590
▁Knives	-7591
▁Labour	-7592
▁Launch	-7593
▁Layers	-7594
▁Listed	-7595
▁Louvre	-7596
▁Lowers	-7597
▁Martha	-7598
▁Marvel	-7599
▁Mentor	-7600
▁Mirror	-7601
▁Misuse	-7602
▁Modify	-7603
▁Morale	-7604
▁Nation	-7605
▁Obtain	-7606
▁Oldest	-7607
▁Packed	-7608
▁Prizes	-7609
▁Rachel	-7610
▁Raised	-7611
▁Refers	-7612
▁Rights	-7613
▁Roping	-7614
▁Rounds	-7615
▁Sandra	-7616
▁Sauces	-7617
▁Senses	-7618
▁Series	-7619
▁Shower	-7620
▁Skates	-7621
▁Smells	-7622
▁Spider	-7623
▁Straws	-7624
▁Street	-7625
▁Strips	-7626
▁Submit	-7627
▁Sweden	-7628
▁Ticket	-7629
▁Torque	-7630
▁Treats	-7631
▁Trench	-7632
▁Tribes	-7633
▁Trucks	-7634
▁Turned	-7635
▁Unused	-7636
▁Warmer	-7637
▁Washed	-7638
▁active	-7639
▁adding	-7640
▁applic	-7641
▁aromas	-7642
▁artist	-7643
▁ascend	-7644
▁attain	-7645
▁battle	-7646
▁become	-7647
▁beyond	-7648
▁blockb	-7649
▁bottle	-7650
▁buried	-7651
▁caring	-7652
▁castle	-7653
▁caused	-7654
▁clever	-7655
▁colors	-7656
▁column	-7657
▁connot	-7658
▁constr	-7659
▁cooked	-7660
▁creamy	-7661
▁deemed	-7662
▁deeper	-7663
▁diffic	-7664
▁dinner	-7665
▁either	-7666
▁empire	-7667
▁enrich	-7668
▁estate	-7669
▁excess	-7670
▁exists	-7671
▁extend	-7672
▁factor	-7673
▁feline	-7674
▁filled	-7675
▁firmly	-7676
▁forces	-7677
▁formed	-7678
▁hidden	-7679
▁highly	-7680
▁honors	-7681
▁inters	-7682
▁limits	-7683
▁luxuri	-7684
▁marine	-7685
▁masses	-7686
▁mechan	-7687
▁mutual	-7688
▁overly	-7689
▁parent	-7690
▁pedals	-7691
▁phases	-7692
▁prefix	-7693
▁reduce	-7694
▁remain	-7695
▁remove	-7696
▁resort	-7697
▁result	-7698
▁retain	-7699
▁rotate	-7700
▁rubber	-7701
▁sample	-7702
▁second	-7703
▁select	-7704
▁skills	-7705
▁snacks	-7706
▁sounds	-7707
▁sphere	-7708
▁spores	-7709
▁squash	-7710
▁stayed	-7711
▁stones	-7712
▁straps	-7713
▁strata	-7714
▁struck	-7715
▁surely	-7716
▁tablet	-7717
▁tastes	-7718
▁tender	-7719
▁themes	-7720
▁tiered	-7721
▁triple	-7722
▁vessel	-7723
▁viewed	-7724
▁vision	-7725
▁voting	-7726
▁vulgar	-7727
▁wasted	-7728
▁winter	-7729
▁yellow	-7730
avorable	-7731
building	-7732
chievous	-7733
cilitate	-7734
circling	-7735
covering	-7736
ematical	-7737
engthens	-7738
ertainly	-7739
gressive	-7740
omobiles	-7741
pectedly	-7742
pitation	-7743
pressive	-7744
ultation	-7745
visation	-7746
▁Accents	-7747
▁Achieve	-7748
▁Against	-7749
▁Airline	-7750
▁Algebra	-7751
▁Analyze	-7752
▁Anthony	-7753
▁Barbell	-7754
▁Battery	-7755
▁Belongs	-7756
▁Bicycle	-7757
▁Bouquet	-7758
▁Bubbles	-7759
▁Capable	-7760
▁Causing	-7761
▁Chatgpt	-7762
▁Checked	-7763
▁Cleaned	-7764
▁Compreh	-7765
▁Contact	-7766
▁Crucial	-7767
▁Derived	-7768
▁Eastern	-7769
▁Editing	-7770
▁Empathy	-7771
▁Enjoyed	-7772
▁Expanse	-7773
▁Eyewear	-7774
▁Finland	-7775
▁Firstly	-7776
▁Flavors	-7777
▁Gradual	-7778
▁Growing	-7779
▁Halfway	-7780
▁Headset	-7781
▁Hearing	-7782
▁Integer	-7783
▁Kicking	-7784
▁Lacking	-7785
▁Marbles	-7786
▁Measure	-7787
▁Monkeys	-7788
▁Nations	-7789
▁Neutral	-7790
▁Observe	-7791
▁Offered	-7792
▁Officer	-7793
▁Palette	-7794
▁Pivotal	-7795
▁Placing	-7796
▁Planted	-7797
▁Precise	-7798
▁Present	-7799
▁Puzzles	-7800
▁Reaches	-7801
▁Reading	-7802
▁Restore	-7803
▁Schools	-7804
▁Secrets	-7805
▁Serious	-7806
▁Sliding	-7807
▁Success	-7808
▁Suggest	-7809
▁Swedish	-7810
▁Tablets	-7811
▁Testing	-7812
▁Tornado	-7813
▁Travels	-7814
▁Vampire	-7815
▁Visible	-7816
▁Warning	-7817
▁Watched	-7818
▁Welding	-7819
▁abdomen	-7820
▁aborted	-7821
▁absence	-7822
▁adapted	-7823
▁admired	-7824
▁amounts	-7825
▁aquatic	-7826
▁arguing	-7827
▁arising	-7828
▁awaited	-7829
▁backing	-7830
▁beliefs	-7831
▁categor	-7832
▁charged	-7833
▁clashes	-7834
▁cooking	-7835
▁counsel	-7836
▁covered	-7837
▁cynical	-7838
▁dealing	-7839
▁derives	-7840
▁digging	-7841
▁drawing	-7842
▁enhance	-7843
▁examine	-7844
▁existed	-7845
▁feeding	-7846
▁follows	-7847
▁garment	-7848
▁grasses	-7849
▁greatly	-7850
▁helpful	-7851
▁highest	-7852
▁holding	-7853
▁hopping	-7854
▁illumin	-7855
▁improve	-7856
▁justice	-7857
▁kingdom	-7858
▁knitted	-7859
▁lacking	-7860
▁largest	-7861
▁leaders	-7862
▁legally	-7863
▁longest	-7864
▁maximum	-7865
▁message	-7866
▁mineral	-7867
▁minimum	-7868
▁mixture	-7869
▁monarch	-7870
▁notices	-7871
▁nozzles	-7872
▁nucleus	-7873
▁operate	-7874
▁patties	-7875
▁payment	-7876
▁picture	-7877
▁pointed	-7878
▁printed	-7879
▁program	-7880
▁pronoun	-7881
▁protect	-7882
▁prudent	-7883
▁pungent	-7884
▁pursued	-7885
▁reasons	-7886
▁rectang	-7887
▁request	-7888
▁rewards	-7889
▁robbery	-7890
▁royalty	-7891
▁sausage	-7892
▁scatter	-7893
▁sharply	-7894
▁similar	-7895
▁speaker	-7896
▁spelled	-7897
▁spheres	-7898
▁steamed	-7899
▁storing	-7900
▁syncopa	-7901
▁theater	-7902
▁theatre	-7903
▁thyroid	-7904
▁vessels	-7905
▁vibrant	-7906
▁warmest	-7907
▁warning	-7908
▁worldly	-7909
acterized	-7910
ansmitted	-7911
couraging	-7912
flowering	-7913
ification	-7914
mpathetic	-7915
unctional	-7916
▁Abundant	-7917
▁	-7918
e	-7919
o	-7920
s	-7921
r	-7922
a	-7923
i	-7924
n	-7925
t	-7926
'	-7927
l	-7928
u	-7929
c	-7930
,	-7931
h	-7932
.	-7933
m	-7934
p	-7935
d	-7936
y	-7937
f	-7938
b	-7939
k	-7940
g	-7941
S	-7942
w	-7943
:	-7944
I	-7945
Y	-7946
v	-7947
D	-7948
H	-7949
B	-7950
E	-7951
O	-7952
T	-7953
|	-7954
A	-7955
M	-7956
R	-7957
x	-7958
N	-7959
U	-7960
—	-7961
[	-7962
]	-7963
?	-7964
(	-7965
)	-7966
W	-7967
1	-7968
2	-7969
z	-7970
j	-7971
5	-7972
4	-7973
0	-7974
3	-7975
6	-7976
7	-7977
9	-7978
8	-7979
F	-7980
C	-7981
q	-7982
G	-7983
P	-7984
;	-7985
_	-7986
L	-7987
-	-7988
K	-7989
Q	-7990
J	-7991
V	-7992
+	-7993
"	-7994
/	-7995
